{
  "version": "1.0",
  "truncation": null,
  "padding": null,
  "added_tokens": [
    {
      "id": 0,
      "content": "[PAD]",
      "single_word": false,
      "lstrip": false,
      "rstrip": false,
      "normalized": false,
      "special": true
    },
    {
      "id": 1,
      "content": "[CLS]",
      "single_word": false,
      "lstrip": false,
      "rstrip": false,
      "normalized": false,
      "special": true
    },
    {
      "id": 2,
      "content": "[SEP]",
      "single_word": false,
      "lstrip": false,
      "rstrip": false,
      "normalized": false,
      "special": true
    },
    {
      "id": 3,
      "content": "[MASK]",
      "single_word": false,
      "lstrip": false,
      "rstrip": false,
      "normalized": false,
      "special": true
    },
    {
      "id": 4,
      "content": "[UNK]",
      "single_word": false,
      "lstrip": false,
      "rstrip": false,
      "normalized": false,
      "special": true
    },
    {
      "id": 5,
      "content": "[NONC1]",
      "single_word": false,
      "lstrip": false,
      "rstrip": false,
      "normalized": false,
      "special": true
    },
    {
      "id": 6,
      "content": "[NONC2]",
      "single_word": false,
      "lstrip": false,
      "rstrip": false,
      "normalized": false,
      "special": true
    },
    {
      "id": 7,
      "content": "[NONC3]",
      "single_word": false,
      "lstrip": false,
      "rstrip": false,
      "normalized": false,
      "special": true
    },
    {
      "id": 8,
      "content": "[NONC0]",
      "single_word": false,
      "lstrip": false,
      "rstrip": false,
      "normalized": false,
      "special": true
    }
  ],
  "normalizer": null,
  "pre_tokenizer": {
    "type": "Sequence",
    "pretokenizers": [
      {
        "type": "WhitespaceSplit"
      },
      {
        "type": "CharDelimiterSplit",
        "delimiter": ","
      }
    ]
  },
  "post_processor": null,
  "decoder": {
    "type": "WordPiece",
    "prefix": "##",
    "cleanup": true
  },
  "model": {
    "type": "WordPiece",
    "unk_token": "[UNK]",
    "continuing_subword_prefix": "##",
    "max_input_chars_per_word": 100,
    "vocab": {
      "[PAD]": 0,
      "[CLS]": 1,
      "[SEP]": 2,
      "[MASK]": 3,
      "[UNK]": 4,
      "[NONC1]": 5,
      "[NONC2]": 6,
      "[NONC3]": 7,
      "[NONC0]": 8,
      "0": 9,
      "1": 10,
      "2": 11,
      "3": 12,
      "4": 13,
      "5": 14,
      "6": 15,
      "7": 16,
      "8": 17,
      "9": 18,
      "a": 19,
      "b": 20,
      "c": 21,
      "d": 22,
      "e": 23,
      "f": 24,
      "##f": 25,
      "##a": 26,
      "##d": 27,
      "##3": 28,
      "##5": 29,
      "##b": 30,
      "##8": 31,
      "##6": 32,
      "##c": 33,
      "##1": 34,
      "##0": 35,
      "##9": 36,
      "##e": 37,
      "##7": 38,
      "##4": 39,
      "##2": 40,
      "##ff": 41,
      "##aa": 42,
      "##dd": 43,
      "##33": 44,
      "##55": 45,
      "##bb": 46,
      "##88": 47,
      "##66": 48,
      "##cc": 49,
      "##11": 50,
      "##00": 51,
      "##99": 52,
      "##ee": 53,
      "##77": 54,
      "##44": 55,
      "##22": 56,
      "##fa": 57,
      "##fd": 58,
      "##f3": 59,
      "##f5": 60,
      "##fb": 61,
      "##f8": 62,
      "##f6": 63,
      "##fc": 64,
      "##f1": 65,
      "##f0": 66,
      "##f9": 67,
      "##fe": 68,
      "##f7": 69,
      "##f4": 70,
      "##f2": 71,
      "##ad": 72,
      "##a3": 73,
      "##a5": 74,
      "##ab": 75,
      "##a8": 76,
      "##a6": 77,
      "##ac": 78,
      "##a1": 79,
      "##a0": 80,
      "##a9": 81,
      "##ae": 82,
      "##a7": 83,
      "##a4": 84,
      "##a2": 85,
      "##d3": 86,
      "##d5": 87,
      "##db": 88,
      "##d8": 89,
      "##d6": 90,
      "##dc": 91,
      "##d1": 92,
      "##d0": 93,
      "##d9": 94,
      "##de": 95,
      "##d7": 96,
      "##d4": 97,
      "##d2": 98,
      "##35": 99,
      "##3b": 100,
      "##38": 101,
      "##36": 102,
      "##3c": 103,
      "##31": 104,
      "##30": 105,
      "##39": 106,
      "##3e": 107,
      "##37": 108,
      "##34": 109,
      "##32": 110,
      "##5b": 111,
      "##58": 112,
      "##56": 113,
      "##5c": 114,
      "##51": 115,
      "##50": 116,
      "##59": 117,
      "##5e": 118,
      "##57": 119,
      "##54": 120,
      "##52": 121,
      "##b8": 122,
      "##b6": 123,
      "##bc": 124,
      "##b1": 125,
      "##b0": 126,
      "##b9": 127,
      "##be": 128,
      "##b7": 129,
      "##b4": 130,
      "##b2": 131,
      "##86": 132,
      "##8c": 133,
      "##81": 134,
      "##80": 135,
      "##89": 136,
      "##8e": 137,
      "##87": 138,
      "##84": 139,
      "##82": 140,
      "##6c": 141,
      "##61": 142,
      "##60": 143,
      "##69": 144,
      "##6e": 145,
      "##67": 146,
      "##64": 147,
      "##62": 148,
      "##c1": 149,
      "##c0": 150,
      "##c9": 151,
      "##ce": 152,
      "##c7": 153,
      "##c4": 154,
      "##c2": 155,
      "##10": 156,
      "##19": 157,
      "##1e": 158,
      "##17": 159,
      "##14": 160,
      "##12": 161,
      "##09": 162,
      "##0e": 163,
      "##07": 164,
      "##04": 165,
      "##02": 166,
      "##9e": 167,
      "##97": 168,
      "##94": 169,
      "##92": 170,
      "##e7": 171,
      "##e4": 172,
      "##e2": 173,
      "##74": 174,
      "##72": 175,
      "##42": 176,
      "02": 177,
      "12": 178,
      "22": 179,
      "32": 180,
      "42": 181,
      "52": 182,
      "62": 183,
      "72": 184,
      "82": 185,
      "92": 186,
      "a2": 187,
      "b2": 188,
      "c2": 189,
      "d2": 190,
      "e2": 191,
      "f2": 192,
      "04": 193,
      "14": 194,
      "24": 195,
      "34": 196,
      "44": 197,
      "54": 198,
      "64": 199,
      "74": 200,
      "84": 201,
      "94": 202,
      "a4": 203,
      "b4": 204,
      "c4": 205,
      "d4": 206,
      "e4": 207,
      "f4": 208,
      "##af": 209,
      "##3d": 210,
      "##b5": 211,
      "##68": 212,
      "##1c": 213,
      "##90": 214,
      "##7e": 215,
      "07": 216,
      "17": 217,
      "27": 218,
      "37": 219,
      "47": 220,
      "57": 221,
      "67": 222,
      "77": 223,
      "87": 224,
      "97": 225,
      "a7": 226,
      "b7": 227,
      "c7": 228,
      "d7": 229,
      "e7": 230,
      "f7": 231,
      "0e": 232,
      "1e": 233,
      "2e": 234,
      "3e": 235,
      "4e": 236,
      "5e": 237,
      "6e": 238,
      "7e": 239,
      "8e": 240,
      "9e": 241,
      "ae": 242,
      "be": 243,
      "ce": 244,
      "de": 245,
      "ee": 246,
      "fe": 247,
      "##df": 248,
      "##da": 249,
      "##3f": 250,
      "##3a": 251,
      "##85": 252,
      "##8b": 253,
      "##65": 254,
      "##6b": 255,
      "##0c": 256,
      "##01": 257,
      "##9c": 258,
      "##91": 259,
      "09": 260,
      "19": 261,
      "29": 262,
      "39": 263,
      "49": 264,
      "59": 265,
      "69": 266,
      "79": 267,
      "89": 268,
      "99": 269,
      "a9": 270,
      "b9": 271,
      "c9": 272,
      "d9": 273,
      "e9": 274,
      "f9": 275,
      "00": 276,
      "10": 277,
      "20": 278,
      "30": 279,
      "40": 280,
      "50": 281,
      "60": 282,
      "70": 283,
      "80": 284,
      "90": 285,
      "a0": 286,
      "b0": 287,
      "c0": 288,
      "d0": 289,
      "e0": 290,
      "f0": 291,
      "01": 292,
      "11": 293,
      "21": 294,
      "31": 295,
      "41": 296,
      "51": 297,
      "61": 298,
      "71": 299,
      "81": 300,
      "91": 301,
      "a1": 302,
      "b1": 303,
      "c1": 304,
      "d1": 305,
      "e1": 306,
      "f1": 307,
      "0c": 308,
      "1c": 309,
      "2c": 310,
      "3c": 311,
      "4c": 312,
      "5c": 313,
      "6c": 314,
      "7c": 315,
      "8c": 316,
      "9c": 317,
      "ac": 318,
      "bc": 319,
      "cc": 320,
      "dc": 321,
      "ec": 322,
      "fc": 323,
      "##5f": 324,
      "##5a": 325,
      "##5d": 326,
      "##53": 327,
      "##bf": 328,
      "##ba": 329,
      "##bd": 330,
      "##b3": 331,
      "##8f": 332,
      "##8a": 333,
      "##8d": 334,
      "##83": 335,
      "##6f": 336,
      "##6a": 337,
      "##6d": 338,
      "##63": 339,
      "06": 340,
      "16": 341,
      "26": 342,
      "36": 343,
      "46": 344,
      "56": 345,
      "66": 346,
      "76": 347,
      "86": 348,
      "96": 349,
      "a6": 350,
      "b6": 351,
      "c6": 352,
      "d6": 353,
      "e6": 354,
      "f6": 355,
      "08": 356,
      "18": 357,
      "28": 358,
      "38": 359,
      "48": 360,
      "58": 361,
      "68": 362,
      "78": 363,
      "88": 364,
      "98": 365,
      "a8": 366,
      "b8": 367,
      "c8": 368,
      "d8": 369,
      "e8": 370,
      "f8": 371,
      "0b": 372,
      "1b": 373,
      "2b": 374,
      "3b": 375,
      "4b": 376,
      "5b": 377,
      "6b": 378,
      "7b": 379,
      "8b": 380,
      "9b": 381,
      "ab": 382,
      "bb": 383,
      "cb": 384,
      "db": 385,
      "eb": 386,
      "fb": 387,
      "05": 388,
      "15": 389,
      "25": 390,
      "35": 391,
      "45": 392,
      "55": 393,
      "65": 394,
      "75": 395,
      "85": 396,
      "95": 397,
      "a5": 398,
      "b5": 399,
      "c5": 400,
      "d5": 401,
      "e5": 402,
      "f5": 403,
      "##cf": 404,
      "##ca": 405,
      "##cd": 406,
      "##c3": 407,
      "##c5": 408,
      "##cb": 409,
      "##c8": 410,
      "##c6": 411,
      "##1f": 412,
      "##1a": 413,
      "##1d": 414,
      "##13": 415,
      "##15": 416,
      "##1b": 417,
      "##18": 418,
      "##16": 419,
      "##0f": 420,
      "##0a": 421,
      "##0d": 422,
      "##03": 423,
      "##05": 424,
      "##0b": 425,
      "##08": 426,
      "##06": 427,
      "##9f": 428,
      "##9a": 429,
      "##9d": 430,
      "##93": 431,
      "##95": 432,
      "##9b": 433,
      "##98": 434,
      "##96": 435,
      "03": 436,
      "13": 437,
      "23": 438,
      "33": 439,
      "43": 440,
      "53": 441,
      "63": 442,
      "73": 443,
      "83": 444,
      "93": 445,
      "a3": 446,
      "b3": 447,
      "c3": 448,
      "d3": 449,
      "e3": 450,
      "f3": 451,
      "0d": 452,
      "1d": 453,
      "2d": 454,
      "3d": 455,
      "4d": 456,
      "5d": 457,
      "6d": 458,
      "7d": 459,
      "8d": 460,
      "9d": 461,
      "ad": 462,
      "bd": 463,
      "cd": 464,
      "dd": 465,
      "ed": 466,
      "fd": 467,
      "##ef": 468,
      "##ea": 469,
      "##ed": 470,
      "##e3": 471,
      "##e5": 472,
      "##eb": 473,
      "##e8": 474,
      "##e6": 475,
      "##ec": 476,
      "##e1": 477,
      "##e0": 478,
      "##e9": 479,
      "##7f": 480,
      "##7a": 481,
      "##7d": 482,
      "##73": 483,
      "##75": 484,
      "##7b": 485,
      "##78": 486,
      "##76": 487,
      "##7c": 488,
      "##71": 489,
      "##70": 490,
      "##79": 491,
      "0a": 492,
      "1a": 493,
      "2a": 494,
      "3a": 495,
      "4a": 496,
      "5a": 497,
      "6a": 498,
      "7a": 499,
      "8a": 500,
      "9a": 501,
      "aa": 502,
      "ba": 503,
      "ca": 504,
      "da": 505,
      "ea": 506,
      "fa": 507,
      "0ff": 508,
      "0aa": 509,
      "0dd": 510,
      "033": 511,
      "055": 512,
      "0bb": 513,
      "088": 514,
      "066": 515,
      "0cc": 516,
      "011": 517,
      "000": 518,
      "099": 519,
      "0ee": 520,
      "077": 521,
      "044": 522,
      "022": 523,
      "1ff": 524,
      "1aa": 525,
      "1dd": 526,
      "133": 527,
      "155": 528,
      "1bb": 529,
      "188": 530,
      "166": 531,
      "1cc": 532,
      "111": 533,
      "100": 534,
      "199": 535,
      "1ee": 536,
      "177": 537,
      "144": 538,
      "122": 539,
      "2ff": 540,
      "2aa": 541,
      "2dd": 542,
      "233": 543,
      "255": 544,
      "2bb": 545,
      "288": 546,
      "266": 547,
      "2cc": 548,
      "211": 549,
      "200": 550,
      "299": 551,
      "2ee": 552,
      "277": 553,
      "244": 554,
      "222": 555,
      "3ff": 556,
      "3aa": 557,
      "3dd": 558,
      "333": 559,
      "355": 560,
      "3bb": 561,
      "388": 562,
      "366": 563,
      "3cc": 564,
      "311": 565,
      "300": 566,
      "399": 567,
      "3ee": 568,
      "377": 569,
      "344": 570,
      "322": 571,
      "4ff": 572,
      "4aa": 573,
      "4dd": 574,
      "433": 575,
      "455": 576,
      "4bb": 577,
      "488": 578,
      "466": 579,
      "4cc": 580,
      "411": 581,
      "400": 582,
      "499": 583,
      "4ee": 584,
      "477": 585,
      "444": 586,
      "422": 587,
      "5ff": 588,
      "5aa": 589,
      "5dd": 590,
      "533": 591,
      "555": 592,
      "5bb": 593,
      "588": 594,
      "566": 595,
      "5cc": 596,
      "511": 597,
      "500": 598,
      "599": 599,
      "5ee": 600,
      "577": 601,
      "544": 602,
      "522": 603,
      "6ff": 604,
      "6aa": 605,
      "6dd": 606,
      "633": 607,
      "655": 608,
      "6bb": 609,
      "688": 610,
      "666": 611,
      "6cc": 612,
      "611": 613,
      "600": 614,
      "699": 615,
      "6ee": 616,
      "677": 617,
      "644": 618,
      "622": 619,
      "7ff": 620,
      "7aa": 621,
      "7dd": 622,
      "733": 623,
      "755": 624,
      "7bb": 625,
      "788": 626,
      "766": 627,
      "7cc": 628,
      "711": 629,
      "700": 630,
      "799": 631,
      "7ee": 632,
      "777": 633,
      "744": 634,
      "722": 635,
      "8ff": 636,
      "8aa": 637,
      "8dd": 638,
      "833": 639,
      "855": 640,
      "8bb": 641,
      "888": 642,
      "866": 643,
      "8cc": 644,
      "811": 645,
      "800": 646,
      "899": 647,
      "8ee": 648,
      "877": 649,
      "844": 650,
      "822": 651,
      "9ff": 652,
      "9aa": 653,
      "9dd": 654,
      "933": 655,
      "955": 656,
      "9bb": 657,
      "988": 658,
      "966": 659,
      "9cc": 660,
      "911": 661,
      "900": 662,
      "999": 663,
      "9ee": 664,
      "977": 665,
      "944": 666,
      "922": 667,
      "aff": 668,
      "aaa": 669,
      "add": 670,
      "a33": 671,
      "a55": 672,
      "abb": 673,
      "a88": 674,
      "a66": 675,
      "acc": 676,
      "a11": 677,
      "a00": 678,
      "a99": 679,
      "aee": 680,
      "a77": 681,
      "a44": 682,
      "a22": 683,
      "bff": 684,
      "baa": 685,
      "bdd": 686,
      "b33": 687,
      "b55": 688,
      "bbb": 689,
      "b88": 690,
      "b66": 691,
      "bcc": 692,
      "b11": 693,
      "b00": 694,
      "b99": 695,
      "bee": 696,
      "b77": 697,
      "b44": 698,
      "b22": 699,
      "cff": 700,
      "caa": 701,
      "cdd": 702,
      "c33": 703,
      "c55": 704,
      "cbb": 705,
      "c88": 706,
      "c66": 707,
      "ccc": 708,
      "c11": 709,
      "c00": 710,
      "c99": 711,
      "cee": 712,
      "c77": 713,
      "c44": 714,
      "c22": 715,
      "dff": 716,
      "daa": 717,
      "ddd": 718,
      "d33": 719,
      "d55": 720,
      "dbb": 721,
      "d88": 722,
      "d66": 723,
      "dcc": 724,
      "d11": 725,
      "d00": 726,
      "d99": 727,
      "dee": 728,
      "d77": 729,
      "d44": 730,
      "d22": 731,
      "eff": 732,
      "eaa": 733,
      "edd": 734,
      "e33": 735,
      "e55": 736,
      "ebb": 737,
      "e88": 738,
      "e66": 739,
      "ecc": 740,
      "e11": 741,
      "e00": 742,
      "e99": 743,
      "eee": 744,
      "e77": 745,
      "e44": 746,
      "e22": 747,
      "fff": 748,
      "faa": 749,
      "fdd": 750,
      "f33": 751,
      "f55": 752,
      "fbb": 753,
      "f88": 754,
      "f66": 755,
      "fcc": 756,
      "f11": 757,
      "f00": 758,
      "f99": 759,
      "fee": 760,
      "f77": 761,
      "f44": 762,
      "f22": 763,
      "##faa": 764,
      "##fdd": 765,
      "##f33": 766,
      "##f55": 767,
      "##fbb": 768,
      "##f88": 769,
      "##f66": 770,
      "##fcc": 771,
      "##f11": 772,
      "##f00": 773,
      "##f99": 774,
      "##fee": 775,
      "##f77": 776,
      "##f44": 777,
      "##f22": 778,
      "##4f": 779,
      "##4a": 780,
      "##4d": 781,
      "##43": 782,
      "##45": 783,
      "##4b": 784,
      "##48": 785,
      "##46": 786,
      "##4c": 787,
      "##41": 788,
      "##40": 789,
      "##49": 790,
      "##4e": 791,
      "##47": 792,
      "##faf": 793,
      "##fad": 794,
      "##fa3": 795,
      "##fa5": 796,
      "##fab": 797,
      "##fa8": 798,
      "##fa6": 799,
      "##fac": 800,
      "##fa1": 801,
      "##fa0": 802,
      "##fa9": 803,
      "##fae": 804,
      "##fa7": 805,
      "##fa4": 806,
      "##fa2": 807,
      "##fdf": 808,
      "##fda": 809,
      "##fd3": 810,
      "##fd5": 811,
      "##fdb": 812,
      "##fd8": 813,
      "##fd6": 814,
      "##fdc": 815,
      "##fd1": 816,
      "##fd0": 817,
      "##fd9": 818,
      "##fde": 819,
      "##fd7": 820,
      "##fd4": 821,
      "##fd2": 822,
      "##f3f": 823,
      "##f3a": 824,
      "##f3d": 825,
      "##f35": 826,
      "##f3b": 827,
      "##f38": 828,
      "##f36": 829,
      "##f3c": 830,
      "##f31": 831,
      "##f30": 832,
      "##f39": 833,
      "##f3e": 834,
      "##f37": 835,
      "##f34": 836,
      "##f32": 837,
      "##f5f": 838,
      "##f5a": 839,
      "##f5d": 840,
      "##f53": 841,
      "##f5b": 842,
      "##f58": 843,
      "##f56": 844,
      "##f5c": 845,
      "##f51": 846,
      "##f50": 847,
      "##f59": 848,
      "##f5e": 849,
      "##f57": 850,
      "##f54": 851,
      "##f52": 852,
      "##fbf": 853,
      "##fba": 854,
      "##fbd": 855,
      "##fb3": 856,
      "##fb5": 857,
      "##fb8": 858,
      "##fb6": 859,
      "##fbc": 860,
      "##fb1": 861,
      "##fb0": 862,
      "##fb9": 863,
      "##fbe": 864,
      "##fb7": 865,
      "##fb4": 866,
      "##fb2": 867,
      "##f8f": 868,
      "##f8a": 869,
      "##f8d": 870,
      "##f83": 871,
      "##f85": 872,
      "##f8b": 873,
      "##f86": 874,
      "##f8c": 875,
      "##f81": 876,
      "##f80": 877,
      "##f89": 878,
      "##f8e": 879,
      "##f87": 880,
      "##f84": 881,
      "##f82": 882,
      "##f6f": 883,
      "##f6a": 884,
      "##f6d": 885,
      "##f63": 886,
      "##f65": 887,
      "##f6b": 888,
      "##f68": 889,
      "##f6c": 890,
      "##f61": 891,
      "##f60": 892,
      "##f69": 893,
      "##f6e": 894,
      "##f67": 895,
      "##f64": 896,
      "##f62": 897,
      "##fcf": 898,
      "##fca": 899,
      "##fcd": 900,
      "##fc3": 901,
      "##fc5": 902,
      "##fcb": 903,
      "##fc8": 904,
      "##fc6": 905,
      "##fc1": 906,
      "##fc0": 907,
      "##fc9": 908,
      "##fce": 909,
      "##fc7": 910,
      "##fc4": 911,
      "##fc2": 912,
      "##f1f": 913,
      "##f1a": 914,
      "##f1d": 915,
      "##f13": 916,
      "##f15": 917,
      "##f1b": 918,
      "##f18": 919,
      "##f16": 920,
      "##f1c": 921,
      "##f10": 922,
      "##f19": 923,
      "##f1e": 924,
      "##f17": 925,
      "##f14": 926,
      "##f12": 927,
      "##f0f": 928,
      "##f0a": 929,
      "##f0d": 930,
      "##f03": 931,
      "##f05": 932,
      "##f0b": 933,
      "##f08": 934,
      "##f06": 935,
      "##f0c": 936,
      "##f01": 937,
      "##f09": 938,
      "##f0e": 939,
      "##f07": 940,
      "##f04": 941,
      "##f02": 942,
      "##f9f": 943,
      "##f9a": 944,
      "##f9d": 945,
      "##f93": 946,
      "##f95": 947,
      "##f9b": 948,
      "##f98": 949,
      "##f96": 950,
      "##f9c": 951,
      "##f91": 952,
      "##f90": 953,
      "##f9e": 954,
      "##f97": 955,
      "##f94": 956,
      "##f92": 957,
      "##fef": 958,
      "##fea": 959,
      "##fed": 960,
      "##fe3": 961,
      "##fe5": 962,
      "##feb": 963,
      "##fe8": 964,
      "##fe6": 965,
      "##fec": 966,
      "##fe1": 967,
      "##fe0": 968,
      "##fe9": 969,
      "##fe7": 970,
      "##fe4": 971,
      "##fe2": 972,
      "##f7f": 973,
      "##f7a": 974,
      "##f7d": 975,
      "##f73": 976,
      "##f75": 977,
      "##f7b": 978,
      "##f78": 979,
      "##f76": 980,
      "##f7c": 981,
      "##f71": 982,
      "##f70": 983,
      "##f79": 984,
      "##f7e": 985,
      "##f74": 986,
      "##f72": 987,
      "##f4f": 988,
      "##f4a": 989,
      "##f4d": 990,
      "##f43": 991,
      "##f45": 992,
      "##f4b": 993,
      "##f48": 994,
      "##f46": 995,
      "##f4c": 996,
      "##f41": 997,
      "##f40": 998,
      "##f49": 999,
      "##f4e": 1000,
      "##f47": 1001,
      "##f42": 1002,
      "##f2f": 1003,
      "##f2a": 1004,
      "##f2d": 1005,
      "##f23": 1006,
      "##f25": 1007,
      "##f2b": 1008,
      "##f28": 1009,
      "##f26": 1010,
      "##f2c": 1011,
      "##f21": 1012,
      "##f20": 1013,
      "##f29": 1014,
      "##f2e": 1015,
      "##f27": 1016,
      "##f24": 1017,
      "##adf": 1018,
      "##ada": 1019,
      "##ad3": 1020,
      "##ad5": 1021,
      "##adb": 1022,
      "##ad8": 1023,
      "##ad6": 1024,
      "##adc": 1025,
      "##ad1": 1026,
      "##ad0": 1027,
      "##ad9": 1028,
      "##ade": 1029,
      "##ad7": 1030,
      "##ad4": 1031,
      "##ad2": 1032,
      "##a3f": 1033,
      "##a3a": 1034,
      "##a3d": 1035,
      "##a35": 1036,
      "##a3b": 1037,
      "##a38": 1038,
      "##a36": 1039,
      "##a3c": 1040,
      "##a31": 1041,
      "##a30": 1042,
      "##a39": 1043,
      "##a3e": 1044,
      "##a37": 1045,
      "##a34": 1046,
      "##a32": 1047,
      "##a5f": 1048,
      "##a5a": 1049,
      "##a5d": 1050,
      "##a53": 1051,
      "##a5b": 1052,
      "##a58": 1053,
      "##a56": 1054,
      "##a5c": 1055,
      "##a51": 1056,
      "##a50": 1057,
      "##a59": 1058,
      "##a5e": 1059,
      "##a57": 1060,
      "##a54": 1061,
      "##a52": 1062,
      "##abf": 1063,
      "##aba": 1064,
      "##abd": 1065,
      "##ab3": 1066,
      "##ab5": 1067,
      "##ab8": 1068,
      "##ab6": 1069,
      "##abc": 1070,
      "##ab1": 1071,
      "##ab0": 1072,
      "##ab9": 1073,
      "##abe": 1074,
      "##ab7": 1075,
      "##ab4": 1076,
      "##ab2": 1077,
      "##a8f": 1078,
      "##a8a": 1079,
      "##a8d": 1080,
      "##a83": 1081,
      "##a85": 1082,
      "##a8b": 1083,
      "##a86": 1084,
      "##a8c": 1085,
      "##a81": 1086,
      "##a80": 1087,
      "##a89": 1088,
      "##a8e": 1089,
      "##a87": 1090,
      "##a84": 1091,
      "##a82": 1092,
      "##a6f": 1093,
      "##a6a": 1094,
      "##a6d": 1095,
      "##a63": 1096,
      "##a65": 1097,
      "##a6b": 1098,
      "##a68": 1099,
      "##a6c": 1100,
      "##a61": 1101,
      "##a60": 1102,
      "##a69": 1103,
      "##a6e": 1104,
      "##a67": 1105,
      "##a64": 1106,
      "##a62": 1107,
      "##acf": 1108,
      "##aca": 1109,
      "##acd": 1110,
      "##ac3": 1111,
      "##ac5": 1112,
      "##acb": 1113,
      "##ac8": 1114,
      "##ac6": 1115,
      "##ac1": 1116,
      "##ac0": 1117,
      "##ac9": 1118,
      "##ace": 1119,
      "##ac7": 1120,
      "##ac4": 1121,
      "##ac2": 1122,
      "##a1f": 1123,
      "##a1a": 1124,
      "##a1d": 1125,
      "##a13": 1126,
      "##a15": 1127,
      "##a1b": 1128,
      "##a18": 1129,
      "##a16": 1130,
      "##a1c": 1131,
      "##a10": 1132,
      "##a19": 1133,
      "##a1e": 1134,
      "##a17": 1135,
      "##a14": 1136,
      "##a12": 1137,
      "##a0f": 1138,
      "##a0a": 1139,
      "##a0d": 1140,
      "##a03": 1141,
      "##a05": 1142,
      "##a0b": 1143,
      "##a08": 1144,
      "##a06": 1145,
      "##a0c": 1146,
      "##a01": 1147,
      "##a09": 1148,
      "##a0e": 1149,
      "##a07": 1150,
      "##a04": 1151,
      "##a02": 1152,
      "##a9f": 1153,
      "##a9a": 1154,
      "##a9d": 1155,
      "##a93": 1156,
      "##a95": 1157,
      "##a9b": 1158,
      "##a98": 1159,
      "##a96": 1160,
      "##a9c": 1161,
      "##a91": 1162,
      "##a90": 1163,
      "##a9e": 1164,
      "##a97": 1165,
      "##a94": 1166,
      "##a92": 1167,
      "##aef": 1168,
      "##aea": 1169,
      "##aed": 1170,
      "##ae3": 1171,
      "##ae5": 1172,
      "##aeb": 1173,
      "##ae8": 1174,
      "##ae6": 1175,
      "##aec": 1176,
      "##ae1": 1177,
      "##ae0": 1178,
      "##ae9": 1179,
      "##ae7": 1180,
      "##ae4": 1181,
      "##ae2": 1182,
      "##a7f": 1183,
      "##a7a": 1184,
      "##a7d": 1185,
      "##a73": 1186,
      "##a75": 1187,
      "##a7b": 1188,
      "##a78": 1189,
      "##a76": 1190,
      "##a7c": 1191,
      "##a71": 1192,
      "##a70": 1193,
      "##a79": 1194,
      "##a7e": 1195,
      "##a74": 1196,
      "##a72": 1197,
      "##a4f": 1198,
      "##a4a": 1199,
      "##a4d": 1200,
      "##a43": 1201,
      "##a45": 1202,
      "##a4b": 1203,
      "##a48": 1204,
      "##a46": 1205,
      "##a4c": 1206,
      "##a41": 1207,
      "##a40": 1208,
      "##a49": 1209,
      "##a4e": 1210,
      "##a47": 1211,
      "##a42": 1212,
      "##a2f": 1213,
      "##a2a": 1214,
      "##a2d": 1215,
      "##a23": 1216,
      "##a25": 1217,
      "##a2b": 1218,
      "##a28": 1219,
      "##a26": 1220,
      "##a2c": 1221,
      "##a21": 1222,
      "##a20": 1223,
      "##a29": 1224,
      "##a2e": 1225,
      "##a27": 1226,
      "##a24": 1227,
      "##d3f": 1228,
      "##d3a": 1229,
      "##d3d": 1230,
      "##d35": 1231,
      "##d3b": 1232,
      "##d38": 1233,
      "##d36": 1234,
      "##d3c": 1235,
      "##d31": 1236,
      "##d30": 1237,
      "##d39": 1238,
      "##d3e": 1239,
      "##d37": 1240,
      "##d34": 1241,
      "##d32": 1242,
      "##d5f": 1243,
      "##d5a": 1244,
      "##d5d": 1245,
      "##d53": 1246,
      "##d5b": 1247,
      "##d58": 1248,
      "##d56": 1249,
      "##d5c": 1250,
      "##d51": 1251,
      "##d50": 1252,
      "##d59": 1253,
      "##d5e": 1254,
      "##d57": 1255,
      "##d54": 1256,
      "##d52": 1257,
      "##dbf": 1258,
      "##dba": 1259,
      "##dbd": 1260,
      "##db3": 1261,
      "##db5": 1262,
      "##db8": 1263,
      "##db6": 1264,
      "##dbc": 1265,
      "##db1": 1266,
      "##db0": 1267,
      "##db9": 1268,
      "##dbe": 1269,
      "##db7": 1270,
      "##db4": 1271,
      "##db2": 1272,
      "##d8f": 1273,
      "##d8a": 1274,
      "##d8d": 1275,
      "##d83": 1276,
      "##d85": 1277,
      "##d8b": 1278,
      "##d86": 1279,
      "##d8c": 1280,
      "##d81": 1281,
      "##d80": 1282,
      "##d89": 1283,
      "##d8e": 1284,
      "##d87": 1285,
      "##d84": 1286,
      "##d82": 1287,
      "##d6f": 1288,
      "##d6a": 1289,
      "##d6d": 1290,
      "##d63": 1291,
      "##d65": 1292,
      "##d6b": 1293,
      "##d68": 1294,
      "##d6c": 1295,
      "##d61": 1296,
      "##d60": 1297,
      "##d69": 1298,
      "##d6e": 1299,
      "##d67": 1300,
      "##d64": 1301,
      "##d62": 1302,
      "##dcf": 1303,
      "##dca": 1304,
      "##dcd": 1305,
      "##dc3": 1306,
      "##dc5": 1307,
      "##dcb": 1308,
      "##dc8": 1309,
      "##dc6": 1310,
      "##dc1": 1311,
      "##dc0": 1312,
      "##dc9": 1313,
      "##dce": 1314,
      "##dc7": 1315,
      "##dc4": 1316,
      "##dc2": 1317,
      "##d1f": 1318,
      "##d1a": 1319,
      "##d1d": 1320,
      "##d13": 1321,
      "##d15": 1322,
      "##d1b": 1323,
      "##d18": 1324,
      "##d16": 1325,
      "##d1c": 1326,
      "##d10": 1327,
      "##d19": 1328,
      "##d1e": 1329,
      "##d17": 1330,
      "##d14": 1331,
      "##d12": 1332,
      "##d0f": 1333,
      "##d0a": 1334,
      "##d0d": 1335,
      "##d03": 1336,
      "##d05": 1337,
      "##d0b": 1338,
      "##d08": 1339,
      "##d06": 1340,
      "##d0c": 1341,
      "##d01": 1342,
      "##d09": 1343,
      "##d0e": 1344,
      "##d07": 1345,
      "##d04": 1346,
      "##d02": 1347,
      "##d9f": 1348,
      "##d9a": 1349,
      "##d9d": 1350,
      "##d93": 1351,
      "##d95": 1352,
      "##d9b": 1353,
      "##d98": 1354,
      "##d96": 1355,
      "##d9c": 1356,
      "##d91": 1357,
      "##d90": 1358,
      "##d9e": 1359,
      "##d97": 1360,
      "##d94": 1361,
      "##d92": 1362,
      "##def": 1363,
      "##dea": 1364,
      "##ded": 1365,
      "##de3": 1366,
      "##de5": 1367,
      "##deb": 1368,
      "##de8": 1369,
      "##de6": 1370,
      "##dec": 1371,
      "##de1": 1372,
      "##de0": 1373,
      "##de9": 1374,
      "##de7": 1375,
      "##de4": 1376,
      "##de2": 1377,
      "##d7f": 1378,
      "##d7a": 1379,
      "##d7d": 1380,
      "##d73": 1381,
      "##d75": 1382,
      "##d7b": 1383,
      "##d78": 1384,
      "##d76": 1385,
      "##d7c": 1386,
      "##d71": 1387,
      "##d70": 1388,
      "##d79": 1389,
      "##d7e": 1390,
      "##d74": 1391,
      "##d72": 1392,
      "##d4f": 1393,
      "##d4a": 1394,
      "##d4d": 1395,
      "##d43": 1396,
      "##d45": 1397,
      "##d4b": 1398,
      "##d48": 1399,
      "##d46": 1400,
      "##d4c": 1401,
      "##d41": 1402,
      "##d40": 1403,
      "##d49": 1404,
      "##d4e": 1405,
      "##d47": 1406,
      "##d42": 1407,
      "##d2f": 1408,
      "##d2a": 1409,
      "##d2d": 1410,
      "##d23": 1411,
      "##d25": 1412,
      "##d2b": 1413,
      "##d28": 1414,
      "##d26": 1415,
      "##d2c": 1416,
      "##d21": 1417,
      "##d20": 1418,
      "##d29": 1419,
      "##d2e": 1420,
      "##d27": 1421,
      "##d24": 1422,
      "##35f": 1423,
      "##35a": 1424,
      "##35d": 1425,
      "##353": 1426,
      "##35b": 1427,
      "##358": 1428,
      "##356": 1429,
      "##35c": 1430,
      "##351": 1431,
      "##350": 1432,
      "##359": 1433,
      "##35e": 1434,
      "##357": 1435,
      "##354": 1436,
      "##352": 1437,
      "##3bf": 1438,
      "##3ba": 1439,
      "##3bd": 1440,
      "##3b3": 1441,
      "##3b5": 1442,
      "##3b8": 1443,
      "##3b6": 1444,
      "##3bc": 1445,
      "##3b1": 1446,
      "##3b0": 1447,
      "##3b9": 1448,
      "##3be": 1449,
      "##3b7": 1450,
      "##3b4": 1451,
      "##3b2": 1452,
      "##38f": 1453,
      "##38a": 1454,
      "##38d": 1455,
      "##383": 1456,
      "##385": 1457,
      "##38b": 1458,
      "##386": 1459,
      "##38c": 1460,
      "##381": 1461,
      "##380": 1462,
      "##389": 1463,
      "##38e": 1464,
      "##387": 1465,
      "##384": 1466,
      "##382": 1467,
      "##36f": 1468,
      "##36a": 1469,
      "##36d": 1470,
      "##363": 1471,
      "##365": 1472,
      "##36b": 1473,
      "##368": 1474,
      "##36c": 1475,
      "##361": 1476,
      "##360": 1477,
      "##369": 1478,
      "##36e": 1479,
      "##367": 1480,
      "##364": 1481,
      "##362": 1482,
      "##3cf": 1483,
      "##3ca": 1484,
      "##3cd": 1485,
      "##3c3": 1486,
      "##3c5": 1487,
      "##3cb": 1488,
      "##3c8": 1489,
      "##3c6": 1490,
      "##3c1": 1491,
      "##3c0": 1492,
      "##3c9": 1493,
      "##3ce": 1494,
      "##3c7": 1495,
      "##3c4": 1496,
      "##3c2": 1497,
      "##31f": 1498,
      "##31a": 1499,
      "##31d": 1500,
      "##313": 1501,
      "##315": 1502,
      "##31b": 1503,
      "##318": 1504,
      "##316": 1505,
      "##31c": 1506,
      "##310": 1507,
      "##319": 1508,
      "##31e": 1509,
      "##317": 1510,
      "##314": 1511,
      "##312": 1512,
      "##30f": 1513,
      "##30a": 1514,
      "##30d": 1515,
      "##303": 1516,
      "##305": 1517,
      "##30b": 1518,
      "##308": 1519,
      "##306": 1520,
      "##30c": 1521,
      "##301": 1522,
      "##309": 1523,
      "##30e": 1524,
      "##307": 1525,
      "##304": 1526,
      "##302": 1527,
      "##39f": 1528,
      "##39a": 1529,
      "##39d": 1530,
      "##393": 1531,
      "##395": 1532,
      "##39b": 1533,
      "##398": 1534,
      "##396": 1535,
      "##39c": 1536,
      "##391": 1537,
      "##390": 1538,
      "##39e": 1539,
      "##397": 1540,
      "##394": 1541,
      "##392": 1542,
      "##3ef": 1543,
      "##3ea": 1544,
      "##3ed": 1545,
      "##3e3": 1546,
      "##3e5": 1547,
      "##3eb": 1548,
      "##3e8": 1549,
      "##3e6": 1550,
      "##3ec": 1551,
      "##3e1": 1552,
      "##3e0": 1553,
      "##3e9": 1554,
      "##3e7": 1555,
      "##3e4": 1556,
      "##3e2": 1557,
      "##37f": 1558,
      "##37a": 1559,
      "##37d": 1560,
      "##373": 1561,
      "##375": 1562,
      "##37b": 1563,
      "##378": 1564,
      "##376": 1565,
      "##37c": 1566,
      "##371": 1567,
      "##370": 1568,
      "##379": 1569,
      "##37e": 1570,
      "##374": 1571,
      "##372": 1572,
      "##34f": 1573,
      "##34a": 1574,
      "##34d": 1575,
      "##343": 1576,
      "##345": 1577,
      "##34b": 1578,
      "##348": 1579,
      "##346": 1580,
      "##34c": 1581,
      "##341": 1582,
      "##340": 1583,
      "##349": 1584,
      "##34e": 1585,
      "##347": 1586,
      "##342": 1587,
      "##32f": 1588,
      "##32a": 1589,
      "##32d": 1590,
      "##323": 1591,
      "##325": 1592,
      "##32b": 1593,
      "##328": 1594,
      "##326": 1595,
      "##32c": 1596,
      "##321": 1597,
      "##320": 1598,
      "##329": 1599,
      "##32e": 1600,
      "##327": 1601,
      "##324": 1602,
      "##5bf": 1603,
      "##5ba": 1604,
      "##5bd": 1605,
      "##5b3": 1606,
      "##5b5": 1607,
      "##5b8": 1608,
      "##5b6": 1609,
      "##5bc": 1610,
      "##5b1": 1611,
      "##5b0": 1612,
      "##5b9": 1613,
      "##5be": 1614,
      "##5b7": 1615,
      "##5b4": 1616,
      "##5b2": 1617,
      "##58f": 1618,
      "##58a": 1619,
      "##58d": 1620,
      "##583": 1621,
      "##585": 1622,
      "##58b": 1623,
      "##586": 1624,
      "##58c": 1625,
      "##581": 1626,
      "##580": 1627,
      "##589": 1628,
      "##58e": 1629,
      "##587": 1630,
      "##584": 1631,
      "##582": 1632,
      "##56f": 1633,
      "##56a": 1634,
      "##56d": 1635,
      "##563": 1636,
      "##565": 1637,
      "##56b": 1638,
      "##568": 1639,
      "##56c": 1640,
      "##561": 1641,
      "##560": 1642,
      "##569": 1643,
      "##56e": 1644,
      "##567": 1645,
      "##564": 1646,
      "##562": 1647,
      "##5cf": 1648,
      "##5ca": 1649,
      "##5cd": 1650,
      "##5c3": 1651,
      "##5c5": 1652,
      "##5cb": 1653,
      "##5c8": 1654,
      "##5c6": 1655,
      "##5c1": 1656,
      "##5c0": 1657,
      "##5c9": 1658,
      "##5ce": 1659,
      "##5c7": 1660,
      "##5c4": 1661,
      "##5c2": 1662,
      "##51f": 1663,
      "##51a": 1664,
      "##51d": 1665,
      "##513": 1666,
      "##515": 1667,
      "##51b": 1668,
      "##518": 1669,
      "##516": 1670,
      "##51c": 1671,
      "##510": 1672,
      "##519": 1673,
      "##51e": 1674,
      "##517": 1675,
      "##514": 1676,
      "##512": 1677,
      "##50f": 1678,
      "##50a": 1679,
      "##50d": 1680,
      "##503": 1681,
      "##505": 1682,
      "##50b": 1683,
      "##508": 1684,
      "##506": 1685,
      "##50c": 1686,
      "##501": 1687,
      "##509": 1688,
      "##50e": 1689,
      "##507": 1690,
      "##504": 1691,
      "##502": 1692,
      "##59f": 1693,
      "##59a": 1694,
      "##59d": 1695,
      "##593": 1696,
      "##595": 1697,
      "##59b": 1698,
      "##598": 1699,
      "##596": 1700,
      "##59c": 1701,
      "##591": 1702,
      "##590": 1703,
      "##59e": 1704,
      "##597": 1705,
      "##594": 1706,
      "##592": 1707,
      "##5ef": 1708,
      "##5ea": 1709,
      "##5ed": 1710,
      "##5e3": 1711,
      "##5e5": 1712,
      "##5eb": 1713,
      "##5e8": 1714,
      "##5e6": 1715,
      "##5ec": 1716,
      "##5e1": 1717,
      "##5e0": 1718,
      "##5e9": 1719,
      "##5e7": 1720,
      "##5e4": 1721,
      "##5e2": 1722,
      "##57f": 1723,
      "##57a": 1724,
      "##57d": 1725,
      "##573": 1726,
      "##575": 1727,
      "##57b": 1728,
      "##578": 1729,
      "##576": 1730,
      "##57c": 1731,
      "##571": 1732,
      "##570": 1733,
      "##579": 1734,
      "##57e": 1735,
      "##574": 1736,
      "##572": 1737,
      "##54f": 1738,
      "##54a": 1739,
      "##54d": 1740,
      "##543": 1741,
      "##545": 1742,
      "##54b": 1743,
      "##548": 1744,
      "##546": 1745,
      "##54c": 1746,
      "##541": 1747,
      "##540": 1748,
      "##549": 1749,
      "##54e": 1750,
      "##547": 1751,
      "##542": 1752,
      "##52f": 1753,
      "##52a": 1754,
      "##52d": 1755,
      "##523": 1756,
      "##525": 1757,
      "##52b": 1758,
      "##528": 1759,
      "##526": 1760,
      "##52c": 1761,
      "##521": 1762,
      "##520": 1763,
      "##529": 1764,
      "##52e": 1765,
      "##527": 1766,
      "##524": 1767,
      "##b8f": 1768,
      "##b8a": 1769,
      "##b8d": 1770,
      "##b83": 1771,
      "##b85": 1772,
      "##b8b": 1773,
      "##b86": 1774,
      "##b8c": 1775,
      "##b81": 1776,
      "##b80": 1777,
      "##b89": 1778,
      "##b8e": 1779,
      "##b87": 1780,
      "##b84": 1781,
      "##b82": 1782,
      "##b6f": 1783,
      "##b6a": 1784,
      "##b6d": 1785,
      "##b63": 1786,
      "##b65": 1787,
      "##b6b": 1788,
      "##b68": 1789,
      "##b6c": 1790,
      "##b61": 1791,
      "##b60": 1792,
      "##b69": 1793,
      "##b6e": 1794,
      "##b67": 1795,
      "##b64": 1796,
      "##b62": 1797,
      "##bcf": 1798,
      "##bca": 1799,
      "##bcd": 1800,
      "##bc3": 1801,
      "##bc5": 1802,
      "##bcb": 1803,
      "##bc8": 1804,
      "##bc6": 1805,
      "##bc1": 1806,
      "##bc0": 1807,
      "##bc9": 1808,
      "##bce": 1809,
      "##bc7": 1810,
      "##bc4": 1811,
      "##bc2": 1812,
      "##b1f": 1813,
      "##b1a": 1814,
      "##b1d": 1815,
      "##b13": 1816,
      "##b15": 1817,
      "##b1b": 1818,
      "##b18": 1819,
      "##b16": 1820,
      "##b1c": 1821,
      "##b10": 1822,
      "##b19": 1823,
      "##b1e": 1824,
      "##b17": 1825,
      "##b14": 1826,
      "##b12": 1827,
      "##b0f": 1828,
      "##b0a": 1829,
      "##b0d": 1830,
      "##b03": 1831,
      "##b05": 1832,
      "##b0b": 1833,
      "##b08": 1834,
      "##b06": 1835,
      "##b0c": 1836,
      "##b01": 1837,
      "##b09": 1838,
      "##b0e": 1839,
      "##b07": 1840,
      "##b04": 1841,
      "##b02": 1842,
      "##b9f": 1843,
      "##b9a": 1844,
      "##b9d": 1845,
      "##b93": 1846,
      "##b95": 1847,
      "##b9b": 1848,
      "##b98": 1849,
      "##b96": 1850,
      "##b9c": 1851,
      "##b91": 1852,
      "##b90": 1853,
      "##b9e": 1854,
      "##b97": 1855,
      "##b94": 1856,
      "##b92": 1857,
      "##bef": 1858,
      "##bea": 1859,
      "##bed": 1860,
      "##be3": 1861,
      "##be5": 1862,
      "##beb": 1863,
      "##be8": 1864,
      "##be6": 1865,
      "##bec": 1866,
      "##be1": 1867,
      "##be0": 1868,
      "##be9": 1869,
      "##be7": 1870,
      "##be4": 1871,
      "##be2": 1872,
      "##b7f": 1873,
      "##b7a": 1874,
      "##b7d": 1875,
      "##b73": 1876,
      "##b75": 1877,
      "##b7b": 1878,
      "##b78": 1879,
      "##b76": 1880,
      "##b7c": 1881,
      "##b71": 1882,
      "##b70": 1883,
      "##b79": 1884,
      "##b7e": 1885,
      "##b74": 1886,
      "##b72": 1887,
      "##b4f": 1888,
      "##b4a": 1889,
      "##b4d": 1890,
      "##b43": 1891,
      "##b45": 1892,
      "##b4b": 1893,
      "##b48": 1894,
      "##b46": 1895,
      "##b4c": 1896,
      "##b41": 1897,
      "##b40": 1898,
      "##b49": 1899,
      "##b4e": 1900,
      "##b47": 1901,
      "##b42": 1902,
      "##b2f": 1903,
      "##b2a": 1904,
      "##b2d": 1905,
      "##b23": 1906,
      "##b25": 1907,
      "##b2b": 1908,
      "##b28": 1909,
      "##b26": 1910,
      "##b2c": 1911,
      "##b21": 1912,
      "##b20": 1913,
      "##b29": 1914,
      "##b2e": 1915,
      "##b27": 1916,
      "##b24": 1917,
      "##86f": 1918,
      "##86a": 1919,
      "##86d": 1920,
      "##863": 1921,
      "##865": 1922,
      "##86b": 1923,
      "##868": 1924,
      "##86c": 1925,
      "##861": 1926,
      "##860": 1927,
      "##869": 1928,
      "##86e": 1929,
      "##867": 1930,
      "##864": 1931,
      "##862": 1932,
      "##8cf": 1933,
      "##8ca": 1934,
      "##8cd": 1935,
      "##8c3": 1936,
      "##8c5": 1937,
      "##8cb": 1938,
      "##8c8": 1939,
      "##8c6": 1940,
      "##8c1": 1941,
      "##8c0": 1942,
      "##8c9": 1943,
      "##8ce": 1944,
      "##8c7": 1945,
      "##8c4": 1946,
      "##8c2": 1947,
      "##81f": 1948,
      "##81a": 1949,
      "##81d": 1950,
      "##813": 1951,
      "##815": 1952,
      "##81b": 1953,
      "##818": 1954,
      "##816": 1955,
      "##81c": 1956,
      "##810": 1957,
      "##819": 1958,
      "##81e": 1959,
      "##817": 1960,
      "##814": 1961,
      "##812": 1962,
      "##80f": 1963,
      "##80a": 1964,
      "##80d": 1965,
      "##803": 1966,
      "##805": 1967,
      "##80b": 1968,
      "##808": 1969,
      "##806": 1970,
      "##80c": 1971,
      "##801": 1972,
      "##809": 1973,
      "##80e": 1974,
      "##807": 1975,
      "##804": 1976,
      "##802": 1977,
      "##89f": 1978,
      "##89a": 1979,
      "##89d": 1980,
      "##893": 1981,
      "##895": 1982,
      "##89b": 1983,
      "##898": 1984,
      "##896": 1985,
      "##89c": 1986,
      "##891": 1987,
      "##890": 1988,
      "##89e": 1989,
      "##897": 1990,
      "##894": 1991,
      "##892": 1992,
      "##8ef": 1993,
      "##8ea": 1994,
      "##8ed": 1995,
      "##8e3": 1996,
      "##8e5": 1997,
      "##8eb": 1998,
      "##8e8": 1999,
      "##8e6": 2000,
      "##8ec": 2001,
      "##8e1": 2002,
      "##8e0": 2003,
      "##8e9": 2004,
      "##8e7": 2005,
      "##8e4": 2006,
      "##8e2": 2007,
      "##87f": 2008,
      "##87a": 2009,
      "##87d": 2010,
      "##873": 2011,
      "##875": 2012,
      "##87b": 2013,
      "##878": 2014,
      "##876": 2015,
      "##87c": 2016,
      "##871": 2017,
      "##870": 2018,
      "##879": 2019,
      "##87e": 2020,
      "##874": 2021,
      "##872": 2022,
      "##84f": 2023,
      "##84a": 2024,
      "##84d": 2025,
      "##843": 2026,
      "##845": 2027,
      "##84b": 2028,
      "##848": 2029,
      "##846": 2030,
      "##84c": 2031,
      "##841": 2032,
      "##840": 2033,
      "##849": 2034,
      "##84e": 2035,
      "##847": 2036,
      "##842": 2037,
      "##82f": 2038,
      "##82a": 2039,
      "##82d": 2040,
      "##823": 2041,
      "##825": 2042,
      "##82b": 2043,
      "##828": 2044,
      "##826": 2045,
      "##82c": 2046,
      "##821": 2047,
      "##820": 2048,
      "##829": 2049,
      "##82e": 2050,
      "##827": 2051,
      "##824": 2052,
      "##6cf": 2053,
      "##6ca": 2054,
      "##6cd": 2055,
      "##6c3": 2056,
      "##6c5": 2057,
      "##6cb": 2058,
      "##6c8": 2059,
      "##6c6": 2060,
      "##6c1": 2061,
      "##6c0": 2062,
      "##6c9": 2063,
      "##6ce": 2064,
      "##6c7": 2065,
      "##6c4": 2066,
      "##6c2": 2067,
      "##61f": 2068,
      "##61a": 2069,
      "##61d": 2070,
      "##613": 2071,
      "##615": 2072,
      "##61b": 2073,
      "##618": 2074,
      "##616": 2075,
      "##61c": 2076,
      "##610": 2077,
      "##619": 2078,
      "##61e": 2079,
      "##617": 2080,
      "##614": 2081,
      "##612": 2082,
      "##60f": 2083,
      "##60a": 2084,
      "##60d": 2085,
      "##603": 2086,
      "##605": 2087,
      "##60b": 2088,
      "##608": 2089,
      "##606": 2090,
      "##60c": 2091,
      "##601": 2092,
      "##609": 2093,
      "##60e": 2094,
      "##607": 2095,
      "##604": 2096,
      "##602": 2097,
      "##69f": 2098,
      "##69a": 2099,
      "##69d": 2100,
      "##693": 2101,
      "##695": 2102,
      "##69b": 2103,
      "##698": 2104,
      "##696": 2105,
      "##69c": 2106,
      "##691": 2107,
      "##690": 2108,
      "##69e": 2109,
      "##697": 2110,
      "##694": 2111,
      "##692": 2112,
      "##6ef": 2113,
      "##6ea": 2114,
      "##6ed": 2115,
      "##6e3": 2116,
      "##6e5": 2117,
      "##6eb": 2118,
      "##6e8": 2119,
      "##6e6": 2120,
      "##6ec": 2121,
      "##6e1": 2122,
      "##6e0": 2123,
      "##6e9": 2124,
      "##6e7": 2125,
      "##6e4": 2126,
      "##6e2": 2127,
      "##67f": 2128,
      "##67a": 2129,
      "##67d": 2130,
      "##673": 2131,
      "##675": 2132,
      "##67b": 2133,
      "##678": 2134,
      "##676": 2135,
      "##67c": 2136,
      "##671": 2137,
      "##670": 2138,
      "##679": 2139,
      "##67e": 2140,
      "##674": 2141,
      "##672": 2142,
      "##64f": 2143,
      "##64a": 2144,
      "##64d": 2145,
      "##643": 2146,
      "##645": 2147,
      "##64b": 2148,
      "##648": 2149,
      "##646": 2150,
      "##64c": 2151,
      "##641": 2152,
      "##640": 2153,
      "##649": 2154,
      "##64e": 2155,
      "##647": 2156,
      "##642": 2157,
      "##62f": 2158,
      "##62a": 2159,
      "##62d": 2160,
      "##623": 2161,
      "##625": 2162,
      "##62b": 2163,
      "##628": 2164,
      "##626": 2165,
      "##62c": 2166,
      "##621": 2167,
      "##620": 2168,
      "##629": 2169,
      "##62e": 2170,
      "##627": 2171,
      "##624": 2172,
      "##c1f": 2173,
      "##c1a": 2174,
      "##c1d": 2175,
      "##c13": 2176,
      "##c15": 2177,
      "##c1b": 2178,
      "##c18": 2179,
      "##c16": 2180,
      "##c1c": 2181,
      "##c10": 2182,
      "##c19": 2183,
      "##c1e": 2184,
      "##c17": 2185,
      "##c14": 2186,
      "##c12": 2187,
      "##c0f": 2188,
      "##c0a": 2189,
      "##c0d": 2190,
      "##c03": 2191,
      "##c05": 2192,
      "##c0b": 2193,
      "##c08": 2194,
      "##c06": 2195,
      "##c0c": 2196,
      "##c01": 2197,
      "##c09": 2198,
      "##c0e": 2199,
      "##c07": 2200,
      "##c04": 2201,
      "##c02": 2202,
      "##c9f": 2203,
      "##c9a": 2204,
      "##c9d": 2205,
      "##c93": 2206,
      "##c95": 2207,
      "##c9b": 2208,
      "##c98": 2209,
      "##c96": 2210,
      "##c9c": 2211,
      "##c91": 2212,
      "##c90": 2213,
      "##c9e": 2214,
      "##c97": 2215,
      "##c94": 2216,
      "##c92": 2217,
      "##cef": 2218,
      "##cea": 2219,
      "##ced": 2220,
      "##ce3": 2221,
      "##ce5": 2222,
      "##ceb": 2223,
      "##ce8": 2224,
      "##ce6": 2225,
      "##cec": 2226,
      "##ce1": 2227,
      "##ce0": 2228,
      "##ce9": 2229,
      "##ce7": 2230,
      "##ce4": 2231,
      "##ce2": 2232,
      "##c7f": 2233,
      "##c7a": 2234,
      "##c7d": 2235,
      "##c73": 2236,
      "##c75": 2237,
      "##c7b": 2238,
      "##c78": 2239,
      "##c76": 2240,
      "##c7c": 2241,
      "##c71": 2242,
      "##c70": 2243,
      "##c79": 2244,
      "##c7e": 2245,
      "##c74": 2246,
      "##c72": 2247,
      "##c4f": 2248,
      "##c4a": 2249,
      "##c4d": 2250,
      "##c43": 2251,
      "##c45": 2252,
      "##c4b": 2253,
      "##c48": 2254,
      "##c46": 2255,
      "##c4c": 2256,
      "##c41": 2257,
      "##c40": 2258,
      "##c49": 2259,
      "##c4e": 2260,
      "##c47": 2261,
      "##c42": 2262,
      "##c2f": 2263,
      "##c2a": 2264,
      "##c2d": 2265,
      "##c23": 2266,
      "##c25": 2267,
      "##c2b": 2268,
      "##c28": 2269,
      "##c26": 2270,
      "##c2c": 2271,
      "##c21": 2272,
      "##c20": 2273,
      "##c29": 2274,
      "##c2e": 2275,
      "##c27": 2276,
      "##c24": 2277,
      "##10f": 2278,
      "##10a": 2279,
      "##10d": 2280,
      "##103": 2281,
      "##105": 2282,
      "##10b": 2283,
      "##108": 2284,
      "##106": 2285,
      "##10c": 2286,
      "##101": 2287,
      "##109": 2288,
      "##10e": 2289,
      "##107": 2290,
      "##104": 2291,
      "##102": 2292,
      "##19f": 2293,
      "##19a": 2294,
      "##19d": 2295,
      "##193": 2296,
      "##195": 2297,
      "##19b": 2298,
      "##198": 2299,
      "##196": 2300,
      "##19c": 2301,
      "##191": 2302,
      "##190": 2303,
      "##19e": 2304,
      "##197": 2305,
      "##194": 2306,
      "##192": 2307,
      "##1ef": 2308,
      "##1ea": 2309,
      "##1ed": 2310,
      "##1e3": 2311,
      "##1e5": 2312,
      "##1eb": 2313,
      "##1e8": 2314,
      "##1e6": 2315,
      "##1ec": 2316,
      "##1e1": 2317,
      "##1e0": 2318,
      "##1e9": 2319,
      "##1e7": 2320,
      "##1e4": 2321,
      "##1e2": 2322,
      "##17f": 2323,
      "##17a": 2324,
      "##17d": 2325,
      "##173": 2326,
      "##175": 2327,
      "##17b": 2328,
      "##178": 2329,
      "##176": 2330,
      "##17c": 2331,
      "##171": 2332,
      "##170": 2333,
      "##179": 2334,
      "##17e": 2335,
      "##174": 2336,
      "##172": 2337,
      "##14f": 2338,
      "##14a": 2339,
      "##14d": 2340,
      "##143": 2341,
      "##145": 2342,
      "##14b": 2343,
      "##148": 2344,
      "##146": 2345,
      "##14c": 2346,
      "##141": 2347,
      "##140": 2348,
      "##149": 2349,
      "##14e": 2350,
      "##147": 2351,
      "##142": 2352,
      "##12f": 2353,
      "##12a": 2354,
      "##12d": 2355,
      "##123": 2356,
      "##125": 2357,
      "##12b": 2358,
      "##128": 2359,
      "##126": 2360,
      "##12c": 2361,
      "##121": 2362,
      "##120": 2363,
      "##129": 2364,
      "##12e": 2365,
      "##127": 2366,
      "##124": 2367,
      "##09f": 2368,
      "##09a": 2369,
      "##09d": 2370,
      "##093": 2371,
      "##095": 2372,
      "##09b": 2373,
      "##098": 2374,
      "##096": 2375,
      "##09c": 2376,
      "##091": 2377,
      "##090": 2378,
      "##09e": 2379,
      "##097": 2380,
      "##094": 2381,
      "##092": 2382,
      "##0ef": 2383,
      "##0ea": 2384,
      "##0ed": 2385,
      "##0e3": 2386,
      "##0e5": 2387,
      "##0eb": 2388,
      "##0e8": 2389,
      "##0e6": 2390,
      "##0ec": 2391,
      "##0e1": 2392,
      "##0e0": 2393,
      "##0e9": 2394,
      "##0e7": 2395,
      "##0e4": 2396,
      "##0e2": 2397,
      "##07f": 2398,
      "##07a": 2399,
      "##07d": 2400,
      "##073": 2401,
      "##075": 2402,
      "##07b": 2403,
      "##078": 2404,
      "##076": 2405,
      "##07c": 2406,
      "##071": 2407,
      "##070": 2408,
      "##079": 2409,
      "##07e": 2410,
      "##074": 2411,
      "##072": 2412,
      "##04f": 2413,
      "##04a": 2414,
      "##04d": 2415,
      "##043": 2416,
      "##045": 2417,
      "##04b": 2418,
      "##048": 2419,
      "##046": 2420,
      "##04c": 2421,
      "##041": 2422,
      "##040": 2423,
      "##049": 2424,
      "##04e": 2425,
      "##047": 2426,
      "##042": 2427,
      "##02f": 2428,
      "##02a": 2429,
      "##02d": 2430,
      "##023": 2431,
      "##025": 2432,
      "##02b": 2433,
      "##028": 2434,
      "##026": 2435,
      "##02c": 2436,
      "##021": 2437,
      "##020": 2438,
      "##029": 2439,
      "##02e": 2440,
      "##027": 2441,
      "##024": 2442,
      "##9ef": 2443,
      "##9ea": 2444,
      "##9ed": 2445,
      "##9e3": 2446,
      "##9e5": 2447,
      "##9eb": 2448,
      "##9e8": 2449,
      "##9e6": 2450,
      "##9ec": 2451,
      "##9e1": 2452,
      "##9e0": 2453,
      "##9e9": 2454,
      "##9e7": 2455,
      "##9e4": 2456,
      "##9e2": 2457,
      "##97f": 2458,
      "##97a": 2459,
      "##97d": 2460,
      "##973": 2461,
      "##975": 2462,
      "##97b": 2463,
      "##978": 2464,
      "##976": 2465,
      "##97c": 2466,
      "##971": 2467,
      "##970": 2468,
      "##979": 2469,
      "##97e": 2470,
      "##974": 2471,
      "##972": 2472,
      "##94f": 2473,
      "##94a": 2474,
      "##94d": 2475,
      "##943": 2476,
      "##945": 2477,
      "##94b": 2478,
      "##948": 2479,
      "##946": 2480,
      "##94c": 2481,
      "##941": 2482,
      "##940": 2483,
      "##949": 2484,
      "##94e": 2485,
      "##947": 2486,
      "##942": 2487,
      "##92f": 2488,
      "##92a": 2489,
      "##92d": 2490,
      "##923": 2491,
      "##925": 2492,
      "##92b": 2493,
      "##928": 2494,
      "##926": 2495,
      "##92c": 2496,
      "##921": 2497,
      "##920": 2498,
      "##929": 2499,
      "##92e": 2500,
      "##927": 2501,
      "##924": 2502,
      "##e7f": 2503,
      "##e7a": 2504,
      "##e7d": 2505,
      "##e73": 2506,
      "##e75": 2507,
      "##e7b": 2508,
      "##e78": 2509,
      "##e76": 2510,
      "##e7c": 2511,
      "##e71": 2512,
      "##e70": 2513,
      "##e79": 2514,
      "##e7e": 2515,
      "##e74": 2516,
      "##e72": 2517,
      "##e4f": 2518,
      "##e4a": 2519,
      "##e4d": 2520,
      "##e43": 2521,
      "##e45": 2522,
      "##e4b": 2523,
      "##e48": 2524,
      "##e46": 2525,
      "##e4c": 2526,
      "##e41": 2527,
      "##e40": 2528,
      "##e49": 2529,
      "##e4e": 2530,
      "##e47": 2531,
      "##e42": 2532,
      "##e2f": 2533,
      "##e2a": 2534,
      "##e2d": 2535,
      "##e23": 2536,
      "##e25": 2537,
      "##e2b": 2538,
      "##e28": 2539,
      "##e26": 2540,
      "##e2c": 2541,
      "##e21": 2542,
      "##e20": 2543,
      "##e29": 2544,
      "##e2e": 2545,
      "##e27": 2546,
      "##e24": 2547,
      "##74f": 2548,
      "##74a": 2549,
      "##74d": 2550,
      "##743": 2551,
      "##745": 2552,
      "##74b": 2553,
      "##748": 2554,
      "##746": 2555,
      "##74c": 2556,
      "##741": 2557,
      "##740": 2558,
      "##749": 2559,
      "##74e": 2560,
      "##747": 2561,
      "##742": 2562,
      "##72f": 2563,
      "##72a": 2564,
      "##72d": 2565,
      "##723": 2566,
      "##725": 2567,
      "##72b": 2568,
      "##728": 2569,
      "##726": 2570,
      "##72c": 2571,
      "##721": 2572,
      "##720": 2573,
      "##729": 2574,
      "##72e": 2575,
      "##727": 2576,
      "##724": 2577,
      "##42f": 2578,
      "##42a": 2579,
      "##42d": 2580,
      "##423": 2581,
      "##425": 2582,
      "##42b": 2583,
      "##428": 2584,
      "##426": 2585,
      "##42c": 2586,
      "##421": 2587,
      "##420": 2588,
      "##429": 2589,
      "##42e": 2590,
      "##427": 2591,
      "##424": 2592,
      "##3df": 2593,
      "##3da": 2594,
      "##b5f": 2595,
      "##b5a": 2596,
      "##b5d": 2597,
      "##b53": 2598,
      "##68f": 2599,
      "##68a": 2600,
      "##68d": 2601,
      "##683": 2602,
      "##685": 2603,
      "##68b": 2604,
      "##1cf": 2605,
      "##1ca": 2606,
      "##1cd": 2607,
      "##1c3": 2608,
      "##1c5": 2609,
      "##1cb": 2610,
      "##1c8": 2611,
      "##1c6": 2612,
      "##90f": 2613,
      "##90a": 2614,
      "##90d": 2615,
      "##903": 2616,
      "##905": 2617,
      "##90b": 2618,
      "##908": 2619,
      "##906": 2620,
      "##90c": 2621,
      "##901": 2622,
      "##7ef": 2623,
      "##7ea": 2624,
      "##7ed": 2625,
      "##7e3": 2626,
      "##7e5": 2627,
      "##7eb": 2628,
      "##7e8": 2629,
      "##7e6": 2630,
      "##7ec": 2631,
      "##7e1": 2632,
      "##7e0": 2633,
      "##7e9": 2634,
      "##85f": 2635,
      "##85a": 2636,
      "##85d": 2637,
      "##853": 2638,
      "##8bf": 2639,
      "##8ba": 2640,
      "##8bd": 2641,
      "##8b3": 2642,
      "##65f": 2643,
      "##65a": 2644,
      "##65d": 2645,
      "##653": 2646,
      "##6bf": 2647,
      "##6ba": 2648,
      "##6bd": 2649,
      "##6b3": 2650,
      "##0cf": 2651,
      "##0ca": 2652,
      "##0cd": 2653,
      "##0c3": 2654,
      "##0c5": 2655,
      "##0cb": 2656,
      "##0c8": 2657,
      "##0c6": 2658,
      "##01f": 2659,
      "##01a": 2660,
      "##01d": 2661,
      "##013": 2662,
      "##015": 2663,
      "##01b": 2664,
      "##018": 2665,
      "##016": 2666,
      "##9cf": 2667,
      "##9ca": 2668,
      "##9cd": 2669,
      "##9c3": 2670,
      "##9c5": 2671,
      "##9cb": 2672,
      "##9c8": 2673,
      "##9c6": 2674,
      "##91f": 2675,
      "##91a": 2676,
      "##91d": 2677,
      "##913": 2678,
      "##915": 2679,
      "##91b": 2680,
      "##918": 2681,
      "##916": 2682,
      "0faa": 2683,
      "0fdd": 2684,
      "0f33": 2685,
      "0f55": 2686,
      "0fbb": 2687,
      "0f88": 2688,
      "0f66": 2689,
      "0fcc": 2690,
      "0f11": 2691,
      "0f00": 2692,
      "0f99": 2693,
      "0fee": 2694,
      "0f77": 2695,
      "0f44": 2696,
      "0f22": 2697,
      "0faf": 2698,
      "0fad": 2699,
      "0fa3": 2700,
      "0fa5": 2701,
      "0fab": 2702,
      "0fa8": 2703,
      "0fa6": 2704,
      "0fac": 2705,
      "0fa1": 2706,
      "0fa0": 2707,
      "0fa9": 2708,
      "0fae": 2709,
      "0fa7": 2710,
      "0fa4": 2711,
      "0fa2": 2712,
      "0fdf": 2713,
      "0fda": 2714,
      "0fd3": 2715,
      "0fd5": 2716,
      "0fdb": 2717,
      "0fd8": 2718,
      "0fd6": 2719,
      "0fdc": 2720,
      "0fd1": 2721,
      "0fd0": 2722,
      "0fd9": 2723,
      "0fde": 2724,
      "0fd7": 2725,
      "0fd4": 2726,
      "0fd2": 2727,
      "0f3f": 2728,
      "0f3a": 2729,
      "0f3d": 2730,
      "0f35": 2731,
      "0f3b": 2732,
      "0f38": 2733,
      "0f36": 2734,
      "0f3c": 2735,
      "0f31": 2736,
      "0f30": 2737,
      "0f39": 2738,
      "0f3e": 2739,
      "0f37": 2740,
      "0f34": 2741,
      "0f32": 2742,
      "0f5f": 2743,
      "0f5a": 2744,
      "0f5d": 2745,
      "0f53": 2746,
      "0f5b": 2747,
      "0f58": 2748,
      "0f56": 2749,
      "0f5c": 2750,
      "0f51": 2751,
      "0f50": 2752,
      "0f59": 2753,
      "0f5e": 2754,
      "0f57": 2755,
      "0f54": 2756,
      "0f52": 2757,
      "0fbf": 2758,
      "0fba": 2759,
      "0fbd": 2760,
      "0fb3": 2761,
      "0fb5": 2762,
      "0fb8": 2763,
      "0fb6": 2764,
      "0fbc": 2765,
      "0fb1": 2766,
      "0fb0": 2767,
      "0fb9": 2768,
      "0fbe": 2769,
      "0fb7": 2770,
      "0fb4": 2771,
      "0fb2": 2772,
      "0f8f": 2773,
      "0f8a": 2774,
      "0f8d": 2775,
      "0f83": 2776,
      "0f85": 2777,
      "0f8b": 2778,
      "0f86": 2779,
      "0f8c": 2780,
      "0f81": 2781,
      "0f80": 2782,
      "0f89": 2783,
      "0f8e": 2784,
      "0f87": 2785,
      "0f84": 2786,
      "0f82": 2787,
      "0f6f": 2788,
      "0f6a": 2789,
      "0f6d": 2790,
      "0f63": 2791,
      "0f65": 2792,
      "0f6b": 2793,
      "0f68": 2794,
      "0f6c": 2795,
      "0f61": 2796,
      "0f60": 2797,
      "0f69": 2798,
      "0f6e": 2799,
      "0f67": 2800,
      "0f64": 2801,
      "0f62": 2802,
      "0fcf": 2803,
      "0fca": 2804,
      "0fcd": 2805,
      "0fc3": 2806,
      "0fc5": 2807,
      "0fcb": 2808,
      "0fc8": 2809,
      "0fc6": 2810,
      "0fc1": 2811,
      "0fc0": 2812,
      "0fc9": 2813,
      "0fce": 2814,
      "0fc7": 2815,
      "0fc4": 2816,
      "0fc2": 2817,
      "0f1f": 2818,
      "0f1a": 2819,
      "0f1d": 2820,
      "0f13": 2821,
      "0f15": 2822,
      "0f1b": 2823,
      "0f18": 2824,
      "0f16": 2825,
      "0f1c": 2826,
      "0f10": 2827,
      "0f19": 2828,
      "0f1e": 2829,
      "0f17": 2830,
      "0f14": 2831,
      "0f12": 2832,
      "0f0f": 2833,
      "0f0a": 2834,
      "0f0d": 2835,
      "0f03": 2836,
      "0f05": 2837,
      "0f0b": 2838,
      "0f08": 2839,
      "0f06": 2840,
      "0f0c": 2841,
      "0f01": 2842,
      "0f09": 2843,
      "0f0e": 2844,
      "0f07": 2845,
      "0f04": 2846,
      "0f02": 2847,
      "0f9f": 2848,
      "0f9a": 2849,
      "0f9d": 2850,
      "0f93": 2851,
      "0f95": 2852,
      "0f9b": 2853,
      "0f98": 2854,
      "0f96": 2855,
      "0f9c": 2856,
      "0f91": 2857,
      "0f90": 2858,
      "0f9e": 2859,
      "0f97": 2860,
      "0f94": 2861,
      "0f92": 2862,
      "0fef": 2863,
      "0fea": 2864,
      "0fed": 2865,
      "0fe3": 2866,
      "0fe5": 2867,
      "0feb": 2868,
      "0fe8": 2869,
      "0fe6": 2870,
      "0fec": 2871,
      "0fe1": 2872,
      "0fe0": 2873,
      "0fe9": 2874,
      "0fe7": 2875,
      "0fe4": 2876,
      "0fe2": 2877,
      "0f7f": 2878,
      "0f7a": 2879,
      "0f7d": 2880,
      "0f73": 2881,
      "0f75": 2882,
      "0f7b": 2883,
      "0f78": 2884,
      "0f76": 2885,
      "0f7c": 2886,
      "0f71": 2887,
      "0f70": 2888,
      "0f79": 2889,
      "0f7e": 2890,
      "0f74": 2891,
      "0f72": 2892,
      "0f4f": 2893,
      "0f4a": 2894,
      "0f4d": 2895,
      "0f43": 2896,
      "0f45": 2897,
      "0f4b": 2898,
      "0f48": 2899,
      "0f46": 2900,
      "0f4c": 2901,
      "0f41": 2902,
      "0f40": 2903,
      "0f49": 2904,
      "0f4e": 2905,
      "0f47": 2906,
      "0f42": 2907,
      "0f2f": 2908,
      "0f2a": 2909,
      "0f2d": 2910,
      "0f23": 2911,
      "0f25": 2912,
      "0f2b": 2913,
      "0f28": 2914,
      "0f26": 2915,
      "0f2c": 2916,
      "0f21": 2917,
      "0f20": 2918,
      "0f29": 2919,
      "0f2e": 2920,
      "0f27": 2921,
      "0f24": 2922,
      "0adf": 2923,
      "0ada": 2924,
      "0ad3": 2925,
      "0ad5": 2926,
      "0adb": 2927,
      "0ad8": 2928,
      "0ad6": 2929,
      "0adc": 2930,
      "0ad1": 2931,
      "0ad0": 2932,
      "0ad9": 2933,
      "0ade": 2934,
      "0ad7": 2935,
      "0ad4": 2936,
      "0ad2": 2937,
      "0a3f": 2938,
      "0a3a": 2939,
      "0a3d": 2940,
      "0a35": 2941,
      "0a3b": 2942,
      "0a38": 2943,
      "0a36": 2944,
      "0a3c": 2945,
      "0a31": 2946,
      "0a30": 2947,
      "0a39": 2948,
      "0a3e": 2949,
      "0a37": 2950,
      "0a34": 2951,
      "0a32": 2952,
      "0a5f": 2953,
      "0a5a": 2954,
      "0a5d": 2955,
      "0a53": 2956,
      "0a5b": 2957,
      "0a58": 2958,
      "0a56": 2959,
      "0a5c": 2960,
      "0a51": 2961,
      "0a50": 2962,
      "0a59": 2963,
      "0a5e": 2964,
      "0a57": 2965,
      "0a54": 2966,
      "0a52": 2967,
      "0abf": 2968,
      "0aba": 2969,
      "0abd": 2970,
      "0ab3": 2971,
      "0ab5": 2972,
      "0ab8": 2973,
      "0ab6": 2974,
      "0abc": 2975,
      "0ab1": 2976,
      "0ab0": 2977,
      "0ab9": 2978,
      "0abe": 2979,
      "0ab7": 2980,
      "0ab4": 2981,
      "0ab2": 2982,
      "0a8f": 2983,
      "0a8a": 2984,
      "0a8d": 2985,
      "0a83": 2986,
      "0a85": 2987,
      "0a8b": 2988,
      "0a86": 2989,
      "0a8c": 2990,
      "0a81": 2991,
      "0a80": 2992,
      "0a89": 2993,
      "0a8e": 2994,
      "0a87": 2995,
      "0a84": 2996,
      "0a82": 2997,
      "0a6f": 2998,
      "0a6a": 2999,
      "0a6d": 3000,
      "0a63": 3001,
      "0a65": 3002,
      "0a6b": 3003,
      "0a68": 3004,
      "0a6c": 3005,
      "0a61": 3006,
      "0a60": 3007,
      "0a69": 3008,
      "0a6e": 3009,
      "0a67": 3010,
      "0a64": 3011,
      "0a62": 3012,
      "0acf": 3013,
      "0aca": 3014,
      "0acd": 3015,
      "0ac3": 3016,
      "0ac5": 3017,
      "0acb": 3018,
      "0ac8": 3019,
      "0ac6": 3020,
      "0ac1": 3021,
      "0ac0": 3022,
      "0ac9": 3023,
      "0ace": 3024,
      "0ac7": 3025,
      "0ac4": 3026,
      "0ac2": 3027,
      "0a1f": 3028,
      "0a1a": 3029,
      "0a1d": 3030,
      "0a13": 3031,
      "0a15": 3032,
      "0a1b": 3033,
      "0a18": 3034,
      "0a16": 3035,
      "0a1c": 3036,
      "0a10": 3037,
      "0a19": 3038,
      "0a1e": 3039,
      "0a17": 3040,
      "0a14": 3041,
      "0a12": 3042,
      "0a0f": 3043,
      "0a0a": 3044,
      "0a0d": 3045,
      "0a03": 3046,
      "0a05": 3047,
      "0a0b": 3048,
      "0a08": 3049,
      "0a06": 3050,
      "0a0c": 3051,
      "0a01": 3052,
      "0a09": 3053,
      "0a0e": 3054,
      "0a07": 3055,
      "0a04": 3056,
      "0a02": 3057,
      "0a9f": 3058,
      "0a9a": 3059,
      "0a9d": 3060,
      "0a93": 3061,
      "0a95": 3062,
      "0a9b": 3063,
      "0a98": 3064,
      "0a96": 3065,
      "0a9c": 3066,
      "0a91": 3067,
      "0a90": 3068,
      "0a9e": 3069,
      "0a97": 3070,
      "0a94": 3071,
      "0a92": 3072,
      "0aef": 3073,
      "0aea": 3074,
      "0aed": 3075,
      "0ae3": 3076,
      "0ae5": 3077,
      "0aeb": 3078,
      "0ae8": 3079,
      "0ae6": 3080,
      "0aec": 3081,
      "0ae1": 3082,
      "0ae0": 3083,
      "0ae9": 3084,
      "0ae7": 3085,
      "0ae4": 3086,
      "0ae2": 3087,
      "0a7f": 3088,
      "0a7a": 3089,
      "0a7d": 3090,
      "0a73": 3091,
      "0a75": 3092,
      "0a7b": 3093,
      "0a78": 3094,
      "0a76": 3095,
      "0a7c": 3096,
      "0a71": 3097,
      "0a70": 3098,
      "0a79": 3099,
      "0a7e": 3100,
      "0a74": 3101,
      "0a72": 3102,
      "0a4f": 3103,
      "0a4a": 3104,
      "0a4d": 3105,
      "0a43": 3106,
      "0a45": 3107,
      "0a4b": 3108,
      "0a48": 3109,
      "0a46": 3110,
      "0a4c": 3111,
      "0a41": 3112,
      "0a40": 3113,
      "0a49": 3114,
      "0a4e": 3115,
      "0a47": 3116,
      "0a42": 3117,
      "0a2f": 3118,
      "0a2a": 3119,
      "0a2d": 3120,
      "0a23": 3121,
      "0a25": 3122,
      "0a2b": 3123,
      "0a28": 3124,
      "0a26": 3125,
      "0a2c": 3126,
      "0a21": 3127,
      "0a20": 3128,
      "0a29": 3129,
      "0a2e": 3130,
      "0a27": 3131,
      "0a24": 3132,
      "0d3f": 3133,
      "0d3a": 3134,
      "0d3d": 3135,
      "0d35": 3136,
      "0d3b": 3137,
      "0d38": 3138,
      "0d36": 3139,
      "0d3c": 3140,
      "0d31": 3141,
      "0d30": 3142,
      "0d39": 3143,
      "0d3e": 3144,
      "0d37": 3145,
      "0d34": 3146,
      "0d32": 3147,
      "0d5f": 3148,
      "0d5a": 3149,
      "0d5d": 3150,
      "0d53": 3151,
      "0d5b": 3152,
      "0d58": 3153,
      "0d56": 3154,
      "0d5c": 3155,
      "0d51": 3156,
      "0d50": 3157,
      "0d59": 3158,
      "0d5e": 3159,
      "0d57": 3160,
      "0d54": 3161,
      "0d52": 3162,
      "0dbf": 3163,
      "0dba": 3164,
      "0dbd": 3165,
      "0db3": 3166,
      "0db5": 3167,
      "0db8": 3168,
      "0db6": 3169,
      "0dbc": 3170,
      "0db1": 3171,
      "0db0": 3172,
      "0db9": 3173,
      "0dbe": 3174,
      "0db7": 3175,
      "0db4": 3176,
      "0db2": 3177,
      "0d8f": 3178,
      "0d8a": 3179,
      "0d8d": 3180,
      "0d83": 3181,
      "0d85": 3182,
      "0d8b": 3183,
      "0d86": 3184,
      "0d8c": 3185,
      "0d81": 3186,
      "0d80": 3187,
      "0d89": 3188,
      "0d8e": 3189,
      "0d87": 3190,
      "0d84": 3191,
      "0d82": 3192,
      "0d6f": 3193,
      "0d6a": 3194,
      "0d6d": 3195,
      "0d63": 3196,
      "0d65": 3197,
      "0d6b": 3198,
      "0d68": 3199,
      "0d6c": 3200,
      "0d61": 3201,
      "0d60": 3202,
      "0d69": 3203,
      "0d6e": 3204,
      "0d67": 3205,
      "0d64": 3206,
      "0d62": 3207,
      "0dcf": 3208,
      "0dca": 3209,
      "0dcd": 3210,
      "0dc3": 3211,
      "0dc5": 3212,
      "0dcb": 3213,
      "0dc8": 3214,
      "0dc6": 3215,
      "0dc1": 3216,
      "0dc0": 3217,
      "0dc9": 3218,
      "0dce": 3219,
      "0dc7": 3220,
      "0dc4": 3221,
      "0dc2": 3222,
      "0d1f": 3223,
      "0d1a": 3224,
      "0d1d": 3225,
      "0d13": 3226,
      "0d15": 3227,
      "0d1b": 3228,
      "0d18": 3229,
      "0d16": 3230,
      "0d1c": 3231,
      "0d10": 3232,
      "0d19": 3233,
      "0d1e": 3234,
      "0d17": 3235,
      "0d14": 3236,
      "0d12": 3237,
      "0d0f": 3238,
      "0d0a": 3239,
      "0d0d": 3240,
      "0d03": 3241,
      "0d05": 3242,
      "0d0b": 3243,
      "0d08": 3244,
      "0d06": 3245,
      "0d0c": 3246,
      "0d01": 3247,
      "0d09": 3248,
      "0d0e": 3249,
      "0d07": 3250,
      "0d04": 3251,
      "0d02": 3252,
      "0d9f": 3253,
      "0d9a": 3254,
      "0d9d": 3255,
      "0d93": 3256,
      "0d95": 3257,
      "0d9b": 3258,
      "0d98": 3259,
      "0d96": 3260,
      "0d9c": 3261,
      "0d91": 3262,
      "0d90": 3263,
      "0d9e": 3264,
      "0d97": 3265,
      "0d94": 3266,
      "0d92": 3267,
      "0def": 3268,
      "0dea": 3269,
      "0ded": 3270,
      "0de3": 3271,
      "0de5": 3272,
      "0deb": 3273,
      "0de8": 3274,
      "0de6": 3275,
      "0dec": 3276,
      "0de1": 3277,
      "0de0": 3278,
      "0de9": 3279,
      "0de7": 3280,
      "0de4": 3281,
      "0de2": 3282,
      "0d7f": 3283,
      "0d7a": 3284,
      "0d7d": 3285,
      "0d73": 3286,
      "0d75": 3287,
      "0d7b": 3288,
      "0d78": 3289,
      "0d76": 3290,
      "0d7c": 3291,
      "0d71": 3292,
      "0d70": 3293,
      "0d79": 3294,
      "0d7e": 3295,
      "0d74": 3296,
      "0d72": 3297,
      "0d4f": 3298,
      "0d4a": 3299,
      "0d4d": 3300,
      "0d43": 3301,
      "0d45": 3302,
      "0d4b": 3303,
      "0d48": 3304,
      "0d46": 3305,
      "0d4c": 3306,
      "0d41": 3307,
      "0d40": 3308,
      "0d49": 3309,
      "0d4e": 3310,
      "0d47": 3311,
      "0d42": 3312,
      "0d2f": 3313,
      "0d2a": 3314,
      "0d2d": 3315,
      "0d23": 3316,
      "0d25": 3317,
      "0d2b": 3318,
      "0d28": 3319,
      "0d26": 3320,
      "0d2c": 3321,
      "0d21": 3322,
      "0d20": 3323,
      "0d29": 3324,
      "0d2e": 3325,
      "0d27": 3326,
      "0d24": 3327,
      "035f": 3328,
      "035a": 3329,
      "035d": 3330,
      "0353": 3331,
      "035b": 3332,
      "0358": 3333,
      "0356": 3334,
      "035c": 3335,
      "0351": 3336,
      "0350": 3337,
      "0359": 3338,
      "035e": 3339,
      "0357": 3340,
      "0354": 3341,
      "0352": 3342,
      "03bf": 3343,
      "03ba": 3344,
      "03bd": 3345,
      "03b3": 3346,
      "03b5": 3347,
      "03b8": 3348,
      "03b6": 3349,
      "03bc": 3350,
      "03b1": 3351,
      "03b0": 3352,
      "03b9": 3353,
      "03be": 3354,
      "03b7": 3355,
      "03b4": 3356,
      "03b2": 3357,
      "038f": 3358,
      "038a": 3359,
      "038d": 3360,
      "0383": 3361,
      "0385": 3362,
      "038b": 3363,
      "0386": 3364,
      "038c": 3365,
      "0381": 3366,
      "0380": 3367,
      "0389": 3368,
      "038e": 3369,
      "0387": 3370,
      "0384": 3371,
      "0382": 3372,
      "036f": 3373,
      "036a": 3374,
      "036d": 3375,
      "0363": 3376,
      "0365": 3377,
      "036b": 3378,
      "0368": 3379,
      "036c": 3380,
      "0361": 3381,
      "0360": 3382,
      "0369": 3383,
      "036e": 3384,
      "0367": 3385,
      "0364": 3386,
      "0362": 3387,
      "03cf": 3388,
      "03ca": 3389,
      "03cd": 3390,
      "03c3": 3391,
      "03c5": 3392,
      "03cb": 3393,
      "03c8": 3394,
      "03c6": 3395,
      "03c1": 3396,
      "03c0": 3397,
      "03c9": 3398,
      "03ce": 3399,
      "03c7": 3400,
      "03c4": 3401,
      "03c2": 3402,
      "031f": 3403,
      "031a": 3404,
      "031d": 3405,
      "0313": 3406,
      "0315": 3407,
      "031b": 3408,
      "0318": 3409,
      "0316": 3410,
      "031c": 3411,
      "0310": 3412,
      "0319": 3413,
      "031e": 3414,
      "0317": 3415,
      "0314": 3416,
      "0312": 3417,
      "030f": 3418,
      "030a": 3419,
      "030d": 3420,
      "0303": 3421,
      "0305": 3422,
      "030b": 3423,
      "0308": 3424,
      "0306": 3425,
      "030c": 3426,
      "0301": 3427,
      "0309": 3428,
      "030e": 3429,
      "0307": 3430,
      "0304": 3431,
      "0302": 3432,
      "039f": 3433,
      "039a": 3434,
      "039d": 3435,
      "0393": 3436,
      "0395": 3437,
      "039b": 3438,
      "0398": 3439,
      "0396": 3440,
      "039c": 3441,
      "0391": 3442,
      "0390": 3443,
      "039e": 3444,
      "0397": 3445,
      "0394": 3446,
      "0392": 3447,
      "03ef": 3448,
      "03ea": 3449,
      "03ed": 3450,
      "03e3": 3451,
      "03e5": 3452,
      "03eb": 3453,
      "03e8": 3454,
      "03e6": 3455,
      "03ec": 3456,
      "03e1": 3457,
      "03e0": 3458,
      "03e9": 3459,
      "03e7": 3460,
      "03e4": 3461,
      "03e2": 3462,
      "037f": 3463,
      "037a": 3464,
      "037d": 3465,
      "0373": 3466,
      "0375": 3467,
      "037b": 3468,
      "0378": 3469,
      "0376": 3470,
      "037c": 3471,
      "0371": 3472,
      "0370": 3473,
      "0379": 3474,
      "037e": 3475,
      "0374": 3476,
      "0372": 3477,
      "034f": 3478,
      "034a": 3479,
      "034d": 3480,
      "0343": 3481,
      "0345": 3482,
      "034b": 3483,
      "0348": 3484,
      "0346": 3485,
      "034c": 3486,
      "0341": 3487,
      "0340": 3488,
      "0349": 3489,
      "034e": 3490,
      "0347": 3491,
      "0342": 3492,
      "032f": 3493,
      "032a": 3494,
      "032d": 3495,
      "0323": 3496,
      "0325": 3497,
      "032b": 3498,
      "0328": 3499,
      "0326": 3500,
      "032c": 3501,
      "0321": 3502,
      "0320": 3503,
      "0329": 3504,
      "032e": 3505,
      "0327": 3506,
      "0324": 3507,
      "05bf": 3508,
      "05ba": 3509,
      "05bd": 3510,
      "05b3": 3511,
      "05b5": 3512,
      "05b8": 3513,
      "05b6": 3514,
      "05bc": 3515,
      "05b1": 3516,
      "05b0": 3517,
      "05b9": 3518,
      "05be": 3519,
      "05b7": 3520,
      "05b4": 3521,
      "05b2": 3522,
      "058f": 3523,
      "058a": 3524,
      "058d": 3525,
      "0583": 3526,
      "0585": 3527,
      "058b": 3528,
      "0586": 3529,
      "058c": 3530,
      "0581": 3531,
      "0580": 3532,
      "0589": 3533,
      "058e": 3534,
      "0587": 3535,
      "0584": 3536,
      "0582": 3537,
      "056f": 3538,
      "056a": 3539,
      "056d": 3540,
      "0563": 3541,
      "0565": 3542,
      "056b": 3543,
      "0568": 3544,
      "056c": 3545,
      "0561": 3546,
      "0560": 3547,
      "0569": 3548,
      "056e": 3549,
      "0567": 3550,
      "0564": 3551,
      "0562": 3552,
      "05cf": 3553,
      "05ca": 3554,
      "05cd": 3555,
      "05c3": 3556,
      "05c5": 3557,
      "05cb": 3558,
      "05c8": 3559,
      "05c6": 3560,
      "05c1": 3561,
      "05c0": 3562,
      "05c9": 3563,
      "05ce": 3564,
      "05c7": 3565,
      "05c4": 3566,
      "05c2": 3567,
      "051f": 3568,
      "051a": 3569,
      "051d": 3570,
      "0513": 3571,
      "0515": 3572,
      "051b": 3573,
      "0518": 3574,
      "0516": 3575,
      "051c": 3576,
      "0510": 3577,
      "0519": 3578,
      "051e": 3579,
      "0517": 3580,
      "0514": 3581,
      "0512": 3582,
      "050f": 3583,
      "050a": 3584,
      "050d": 3585,
      "0503": 3586,
      "0505": 3587,
      "050b": 3588,
      "0508": 3589,
      "0506": 3590,
      "050c": 3591,
      "0501": 3592,
      "0509": 3593,
      "050e": 3594,
      "0507": 3595,
      "0504": 3596,
      "0502": 3597,
      "059f": 3598,
      "059a": 3599,
      "059d": 3600,
      "0593": 3601,
      "0595": 3602,
      "059b": 3603,
      "0598": 3604,
      "0596": 3605,
      "059c": 3606,
      "0591": 3607,
      "0590": 3608,
      "059e": 3609,
      "0597": 3610,
      "0594": 3611,
      "0592": 3612,
      "05ef": 3613,
      "05ea": 3614,
      "05ed": 3615,
      "05e3": 3616,
      "05e5": 3617,
      "05eb": 3618,
      "05e8": 3619,
      "05e6": 3620,
      "05ec": 3621,
      "05e1": 3622,
      "05e0": 3623,
      "05e9": 3624,
      "05e7": 3625,
      "05e4": 3626,
      "05e2": 3627,
      "057f": 3628,
      "057a": 3629,
      "057d": 3630,
      "0573": 3631,
      "0575": 3632,
      "057b": 3633,
      "0578": 3634,
      "0576": 3635,
      "057c": 3636,
      "0571": 3637,
      "0570": 3638,
      "0579": 3639,
      "057e": 3640,
      "0574": 3641,
      "0572": 3642,
      "054f": 3643,
      "054a": 3644,
      "054d": 3645,
      "0543": 3646,
      "0545": 3647,
      "054b": 3648,
      "0548": 3649,
      "0546": 3650,
      "054c": 3651,
      "0541": 3652,
      "0540": 3653,
      "0549": 3654,
      "054e": 3655,
      "0547": 3656,
      "0542": 3657,
      "052f": 3658,
      "052a": 3659,
      "052d": 3660,
      "0523": 3661,
      "0525": 3662,
      "052b": 3663,
      "0528": 3664,
      "0526": 3665,
      "052c": 3666,
      "0521": 3667,
      "0520": 3668,
      "0529": 3669,
      "052e": 3670,
      "0527": 3671,
      "0524": 3672,
      "0b8f": 3673,
      "0b8a": 3674,
      "0b8d": 3675,
      "0b83": 3676,
      "0b85": 3677,
      "0b8b": 3678,
      "0b86": 3679,
      "0b8c": 3680,
      "0b81": 3681,
      "0b80": 3682,
      "0b89": 3683,
      "0b8e": 3684,
      "0b87": 3685,
      "0b84": 3686,
      "0b82": 3687,
      "0b6f": 3688,
      "0b6a": 3689,
      "0b6d": 3690,
      "0b63": 3691,
      "0b65": 3692,
      "0b6b": 3693,
      "0b68": 3694,
      "0b6c": 3695,
      "0b61": 3696,
      "0b60": 3697,
      "0b69": 3698,
      "0b6e": 3699,
      "0b67": 3700,
      "0b64": 3701,
      "0b62": 3702,
      "0bcf": 3703,
      "0bca": 3704,
      "0bcd": 3705,
      "0bc3": 3706,
      "0bc5": 3707,
      "0bcb": 3708,
      "0bc8": 3709,
      "0bc6": 3710,
      "0bc1": 3711,
      "0bc0": 3712,
      "0bc9": 3713,
      "0bce": 3714,
      "0bc7": 3715,
      "0bc4": 3716,
      "0bc2": 3717,
      "0b1f": 3718,
      "0b1a": 3719,
      "0b1d": 3720,
      "0b13": 3721,
      "0b15": 3722,
      "0b1b": 3723,
      "0b18": 3724,
      "0b16": 3725,
      "0b1c": 3726,
      "0b10": 3727,
      "0b19": 3728,
      "0b1e": 3729,
      "0b17": 3730,
      "0b14": 3731,
      "0b12": 3732,
      "0b0f": 3733,
      "0b0a": 3734,
      "0b0d": 3735,
      "0b03": 3736,
      "0b05": 3737,
      "0b0b": 3738,
      "0b08": 3739,
      "0b06": 3740,
      "0b0c": 3741,
      "0b01": 3742,
      "0b09": 3743,
      "0b0e": 3744,
      "0b07": 3745,
      "0b04": 3746,
      "0b02": 3747,
      "0b9f": 3748,
      "0b9a": 3749,
      "0b9d": 3750,
      "0b93": 3751,
      "0b95": 3752,
      "0b9b": 3753,
      "0b98": 3754,
      "0b96": 3755,
      "0b9c": 3756,
      "0b91": 3757,
      "0b90": 3758,
      "0b9e": 3759,
      "0b97": 3760,
      "0b94": 3761,
      "0b92": 3762,
      "0bef": 3763,
      "0bea": 3764,
      "0bed": 3765,
      "0be3": 3766,
      "0be5": 3767,
      "0beb": 3768,
      "0be8": 3769,
      "0be6": 3770,
      "0bec": 3771,
      "0be1": 3772,
      "0be0": 3773,
      "0be9": 3774,
      "0be7": 3775,
      "0be4": 3776,
      "0be2": 3777,
      "0b7f": 3778,
      "0b7a": 3779,
      "0b7d": 3780,
      "0b73": 3781,
      "0b75": 3782,
      "0b7b": 3783,
      "0b78": 3784,
      "0b76": 3785,
      "0b7c": 3786,
      "0b71": 3787,
      "0b70": 3788,
      "0b79": 3789,
      "0b7e": 3790,
      "0b74": 3791,
      "0b72": 3792,
      "0b4f": 3793,
      "0b4a": 3794,
      "0b4d": 3795,
      "0b43": 3796,
      "0b45": 3797,
      "0b4b": 3798,
      "0b48": 3799,
      "0b46": 3800,
      "0b4c": 3801,
      "0b41": 3802,
      "0b40": 3803,
      "0b49": 3804,
      "0b4e": 3805,
      "0b47": 3806,
      "0b42": 3807,
      "0b2f": 3808,
      "0b2a": 3809,
      "0b2d": 3810,
      "0b23": 3811,
      "0b25": 3812,
      "0b2b": 3813,
      "0b28": 3814,
      "0b26": 3815,
      "0b2c": 3816,
      "0b21": 3817,
      "0b20": 3818,
      "0b29": 3819,
      "0b2e": 3820,
      "0b27": 3821,
      "0b24": 3822,
      "086f": 3823,
      "086a": 3824,
      "086d": 3825,
      "0863": 3826,
      "0865": 3827,
      "086b": 3828,
      "0868": 3829,
      "086c": 3830,
      "0861": 3831,
      "0860": 3832,
      "0869": 3833,
      "086e": 3834,
      "0867": 3835,
      "0864": 3836,
      "0862": 3837,
      "08cf": 3838,
      "08ca": 3839,
      "08cd": 3840,
      "08c3": 3841,
      "08c5": 3842,
      "08cb": 3843,
      "08c8": 3844,
      "08c6": 3845,
      "08c1": 3846,
      "08c0": 3847,
      "08c9": 3848,
      "08ce": 3849,
      "08c7": 3850,
      "08c4": 3851,
      "08c2": 3852,
      "081f": 3853,
      "081a": 3854,
      "081d": 3855,
      "0813": 3856,
      "0815": 3857,
      "081b": 3858,
      "0818": 3859,
      "0816": 3860,
      "081c": 3861,
      "0810": 3862,
      "0819": 3863,
      "081e": 3864,
      "0817": 3865,
      "0814": 3866,
      "0812": 3867,
      "080f": 3868,
      "080a": 3869,
      "080d": 3870,
      "0803": 3871,
      "0805": 3872,
      "080b": 3873,
      "0808": 3874,
      "0806": 3875,
      "080c": 3876,
      "0801": 3877,
      "0809": 3878,
      "080e": 3879,
      "0807": 3880,
      "0804": 3881,
      "0802": 3882,
      "089f": 3883,
      "089a": 3884,
      "089d": 3885,
      "0893": 3886,
      "0895": 3887,
      "089b": 3888,
      "0898": 3889,
      "0896": 3890,
      "089c": 3891,
      "0891": 3892,
      "0890": 3893,
      "089e": 3894,
      "0897": 3895,
      "0894": 3896,
      "0892": 3897,
      "08ef": 3898,
      "08ea": 3899,
      "08ed": 3900,
      "08e3": 3901,
      "08e5": 3902,
      "08eb": 3903,
      "08e8": 3904,
      "08e6": 3905,
      "08ec": 3906,
      "08e1": 3907,
      "08e0": 3908,
      "08e9": 3909,
      "08e7": 3910,
      "08e4": 3911,
      "08e2": 3912,
      "087f": 3913,
      "087a": 3914,
      "087d": 3915,
      "0873": 3916,
      "0875": 3917,
      "087b": 3918,
      "0878": 3919,
      "0876": 3920,
      "087c": 3921,
      "0871": 3922,
      "0870": 3923,
      "0879": 3924,
      "087e": 3925,
      "0874": 3926,
      "0872": 3927,
      "084f": 3928,
      "084a": 3929,
      "084d": 3930,
      "0843": 3931,
      "0845": 3932,
      "084b": 3933,
      "0848": 3934,
      "0846": 3935,
      "084c": 3936,
      "0841": 3937,
      "0840": 3938,
      "0849": 3939,
      "084e": 3940,
      "0847": 3941,
      "0842": 3942,
      "082f": 3943,
      "082a": 3944,
      "082d": 3945,
      "0823": 3946,
      "0825": 3947,
      "082b": 3948,
      "0828": 3949,
      "0826": 3950,
      "082c": 3951,
      "0821": 3952,
      "0820": 3953,
      "0829": 3954,
      "082e": 3955,
      "0827": 3956,
      "0824": 3957,
      "06cf": 3958,
      "06ca": 3959,
      "06cd": 3960,
      "06c3": 3961,
      "06c5": 3962,
      "06cb": 3963,
      "06c8": 3964,
      "06c6": 3965,
      "06c1": 3966,
      "06c0": 3967,
      "06c9": 3968,
      "06ce": 3969,
      "06c7": 3970,
      "06c4": 3971,
      "06c2": 3972,
      "061f": 3973,
      "061a": 3974,
      "061d": 3975,
      "0613": 3976,
      "0615": 3977,
      "061b": 3978,
      "0618": 3979,
      "0616": 3980,
      "061c": 3981,
      "0610": 3982,
      "0619": 3983,
      "061e": 3984,
      "0617": 3985,
      "0614": 3986,
      "0612": 3987,
      "060f": 3988,
      "060a": 3989,
      "060d": 3990,
      "0603": 3991,
      "0605": 3992,
      "060b": 3993,
      "0608": 3994,
      "0606": 3995,
      "060c": 3996,
      "0601": 3997,
      "0609": 3998,
      "060e": 3999,
      "0607": 4000,
      "0604": 4001,
      "0602": 4002,
      "069f": 4003,
      "069a": 4004,
      "069d": 4005,
      "0693": 4006,
      "0695": 4007,
      "069b": 4008,
      "0698": 4009,
      "0696": 4010,
      "069c": 4011,
      "0691": 4012,
      "0690": 4013,
      "069e": 4014,
      "0697": 4015,
      "0694": 4016,
      "0692": 4017,
      "06ef": 4018,
      "06ea": 4019,
      "06ed": 4020,
      "06e3": 4021,
      "06e5": 4022,
      "06eb": 4023,
      "06e8": 4024,
      "06e6": 4025,
      "06ec": 4026,
      "06e1": 4027,
      "06e0": 4028,
      "06e9": 4029,
      "06e7": 4030,
      "06e4": 4031,
      "06e2": 4032,
      "067f": 4033,
      "067a": 4034,
      "067d": 4035,
      "0673": 4036,
      "0675": 4037,
      "067b": 4038,
      "0678": 4039,
      "0676": 4040,
      "067c": 4041,
      "0671": 4042,
      "0670": 4043,
      "0679": 4044,
      "067e": 4045,
      "0674": 4046,
      "0672": 4047,
      "064f": 4048,
      "064a": 4049,
      "064d": 4050,
      "0643": 4051,
      "0645": 4052,
      "064b": 4053,
      "0648": 4054,
      "0646": 4055,
      "064c": 4056,
      "0641": 4057,
      "0640": 4058,
      "0649": 4059,
      "064e": 4060,
      "0647": 4061,
      "0642": 4062,
      "062f": 4063,
      "062a": 4064,
      "062d": 4065,
      "0623": 4066,
      "0625": 4067,
      "062b": 4068,
      "0628": 4069,
      "0626": 4070,
      "062c": 4071,
      "0621": 4072,
      "0620": 4073,
      "0629": 4074,
      "062e": 4075,
      "0627": 4076,
      "0624": 4077,
      "0c1f": 4078,
      "0c1a": 4079,
      "0c1d": 4080,
      "0c13": 4081,
      "0c15": 4082,
      "0c1b": 4083,
      "0c18": 4084,
      "0c16": 4085,
      "0c1c": 4086,
      "0c10": 4087,
      "0c19": 4088,
      "0c1e": 4089,
      "0c17": 4090,
      "0c14": 4091,
      "0c12": 4092,
      "0c0f": 4093,
      "0c0a": 4094,
      "0c0d": 4095,
      "0c03": 4096,
      "0c05": 4097,
      "0c0b": 4098,
      "0c08": 4099,
      "0c06": 4100,
      "0c0c": 4101,
      "0c01": 4102,
      "0c09": 4103,
      "0c0e": 4104,
      "0c07": 4105,
      "0c04": 4106,
      "0c02": 4107,
      "0c9f": 4108,
      "0c9a": 4109,
      "0c9d": 4110,
      "0c93": 4111,
      "0c95": 4112,
      "0c9b": 4113,
      "0c98": 4114,
      "0c96": 4115,
      "0c9c": 4116,
      "0c91": 4117,
      "0c90": 4118,
      "0c9e": 4119,
      "0c97": 4120,
      "0c94": 4121,
      "0c92": 4122,
      "0cef": 4123,
      "0cea": 4124,
      "0ced": 4125,
      "0ce3": 4126,
      "0ce5": 4127,
      "0ceb": 4128,
      "0ce8": 4129,
      "0ce6": 4130,
      "0cec": 4131,
      "0ce1": 4132,
      "0ce0": 4133,
      "0ce9": 4134,
      "0ce7": 4135,
      "0ce4": 4136,
      "0ce2": 4137,
      "0c7f": 4138,
      "0c7a": 4139,
      "0c7d": 4140,
      "0c73": 4141,
      "0c75": 4142,
      "0c7b": 4143,
      "0c78": 4144,
      "0c76": 4145,
      "0c7c": 4146,
      "0c71": 4147,
      "0c70": 4148,
      "0c79": 4149,
      "0c7e": 4150,
      "0c74": 4151,
      "0c72": 4152,
      "0c4f": 4153,
      "0c4a": 4154,
      "0c4d": 4155,
      "0c43": 4156,
      "0c45": 4157,
      "0c4b": 4158,
      "0c48": 4159,
      "0c46": 4160,
      "0c4c": 4161,
      "0c41": 4162,
      "0c40": 4163,
      "0c49": 4164,
      "0c4e": 4165,
      "0c47": 4166,
      "0c42": 4167,
      "0c2f": 4168,
      "0c2a": 4169,
      "0c2d": 4170,
      "0c23": 4171,
      "0c25": 4172,
      "0c2b": 4173,
      "0c28": 4174,
      "0c26": 4175,
      "0c2c": 4176,
      "0c21": 4177,
      "0c20": 4178,
      "0c29": 4179,
      "0c2e": 4180,
      "0c27": 4181,
      "0c24": 4182,
      "010f": 4183,
      "010a": 4184,
      "010d": 4185,
      "0103": 4186,
      "0105": 4187,
      "010b": 4188,
      "0108": 4189,
      "0106": 4190,
      "010c": 4191,
      "0101": 4192,
      "0109": 4193,
      "010e": 4194,
      "0107": 4195,
      "0104": 4196,
      "0102": 4197,
      "019f": 4198,
      "019a": 4199,
      "019d": 4200,
      "0193": 4201,
      "0195": 4202,
      "019b": 4203,
      "0198": 4204,
      "0196": 4205,
      "019c": 4206,
      "0191": 4207,
      "0190": 4208,
      "019e": 4209,
      "0197": 4210,
      "0194": 4211,
      "0192": 4212,
      "01ef": 4213,
      "01ea": 4214,
      "01ed": 4215,
      "01e3": 4216,
      "01e5": 4217,
      "01eb": 4218,
      "01e8": 4219,
      "01e6": 4220,
      "01ec": 4221,
      "01e1": 4222,
      "01e0": 4223,
      "01e9": 4224,
      "01e7": 4225,
      "01e4": 4226,
      "01e2": 4227,
      "017f": 4228,
      "017a": 4229,
      "017d": 4230,
      "0173": 4231,
      "0175": 4232,
      "017b": 4233,
      "0178": 4234,
      "0176": 4235,
      "017c": 4236,
      "0171": 4237,
      "0170": 4238,
      "0179": 4239,
      "017e": 4240,
      "0174": 4241,
      "0172": 4242,
      "014f": 4243,
      "014a": 4244,
      "014d": 4245,
      "0143": 4246,
      "0145": 4247,
      "014b": 4248,
      "0148": 4249,
      "0146": 4250,
      "014c": 4251,
      "0141": 4252,
      "0140": 4253,
      "0149": 4254,
      "014e": 4255,
      "0147": 4256,
      "0142": 4257,
      "012f": 4258,
      "012a": 4259,
      "012d": 4260,
      "0123": 4261,
      "0125": 4262,
      "012b": 4263,
      "0128": 4264,
      "0126": 4265,
      "012c": 4266,
      "0121": 4267,
      "0120": 4268,
      "0129": 4269,
      "012e": 4270,
      "0127": 4271,
      "0124": 4272,
      "009f": 4273,
      "009a": 4274,
      "009d": 4275,
      "0093": 4276,
      "0095": 4277,
      "009b": 4278,
      "0098": 4279,
      "0096": 4280,
      "009c": 4281,
      "0091": 4282,
      "0090": 4283,
      "009e": 4284,
      "0097": 4285,
      "0094": 4286,
      "0092": 4287,
      "00ef": 4288,
      "00ea": 4289,
      "00ed": 4290,
      "00e3": 4291,
      "00e5": 4292,
      "00eb": 4293,
      "00e8": 4294,
      "00e6": 4295,
      "00ec": 4296,
      "00e1": 4297,
      "00e0": 4298,
      "00e9": 4299,
      "00e7": 4300,
      "00e4": 4301,
      "00e2": 4302,
      "007f": 4303,
      "007a": 4304,
      "007d": 4305,
      "0073": 4306,
      "0075": 4307,
      "007b": 4308,
      "0078": 4309,
      "0076": 4310,
      "007c": 4311,
      "0071": 4312,
      "0070": 4313,
      "0079": 4314,
      "007e": 4315,
      "0074": 4316,
      "0072": 4317,
      "004f": 4318,
      "004a": 4319,
      "004d": 4320,
      "0043": 4321,
      "0045": 4322,
      "004b": 4323,
      "0048": 4324,
      "0046": 4325,
      "004c": 4326,
      "0041": 4327,
      "0040": 4328,
      "0049": 4329,
      "004e": 4330,
      "0047": 4331,
      "0042": 4332,
      "002f": 4333,
      "002a": 4334,
      "002d": 4335,
      "0023": 4336,
      "0025": 4337,
      "002b": 4338,
      "0028": 4339,
      "0026": 4340,
      "002c": 4341,
      "0021": 4342,
      "0020": 4343,
      "0029": 4344,
      "002e": 4345,
      "0027": 4346,
      "0024": 4347,
      "09ef": 4348,
      "09ea": 4349,
      "09ed": 4350,
      "09e3": 4351,
      "09e5": 4352,
      "09eb": 4353,
      "09e8": 4354,
      "09e6": 4355,
      "09ec": 4356,
      "09e1": 4357,
      "09e0": 4358,
      "09e9": 4359,
      "09e7": 4360,
      "09e4": 4361,
      "09e2": 4362,
      "097f": 4363,
      "097a": 4364,
      "097d": 4365,
      "0973": 4366,
      "0975": 4367,
      "097b": 4368,
      "0978": 4369,
      "0976": 4370,
      "097c": 4371,
      "0971": 4372,
      "0970": 4373,
      "0979": 4374,
      "097e": 4375,
      "0974": 4376,
      "0972": 4377,
      "094f": 4378,
      "094a": 4379,
      "094d": 4380,
      "0943": 4381,
      "0945": 4382,
      "094b": 4383,
      "0948": 4384,
      "0946": 4385,
      "094c": 4386,
      "0941": 4387,
      "0940": 4388,
      "0949": 4389,
      "094e": 4390,
      "0947": 4391,
      "0942": 4392,
      "092f": 4393,
      "092a": 4394,
      "092d": 4395,
      "0923": 4396,
      "0925": 4397,
      "092b": 4398,
      "0928": 4399,
      "0926": 4400,
      "092c": 4401,
      "0921": 4402,
      "0920": 4403,
      "0929": 4404,
      "092e": 4405,
      "0927": 4406,
      "0924": 4407,
      "0e7f": 4408,
      "0e7a": 4409,
      "0e7d": 4410,
      "0e73": 4411,
      "0e75": 4412,
      "0e7b": 4413,
      "0e78": 4414,
      "0e76": 4415,
      "0e7c": 4416,
      "0e71": 4417,
      "0e70": 4418,
      "0e79": 4419,
      "0e7e": 4420,
      "0e74": 4421,
      "0e72": 4422,
      "0e4f": 4423,
      "0e4a": 4424,
      "0e4d": 4425,
      "0e43": 4426,
      "0e45": 4427,
      "0e4b": 4428,
      "0e48": 4429,
      "0e46": 4430,
      "0e4c": 4431,
      "0e41": 4432,
      "0e40": 4433,
      "0e49": 4434,
      "0e4e": 4435,
      "0e47": 4436,
      "0e42": 4437,
      "0e2f": 4438,
      "0e2a": 4439,
      "0e2d": 4440,
      "0e23": 4441,
      "0e25": 4442,
      "0e2b": 4443,
      "0e28": 4444,
      "0e26": 4445,
      "0e2c": 4446,
      "0e21": 4447,
      "0e20": 4448,
      "0e29": 4449,
      "0e2e": 4450,
      "0e27": 4451,
      "0e24": 4452,
      "074f": 4453,
      "074a": 4454,
      "074d": 4455,
      "0743": 4456,
      "0745": 4457,
      "074b": 4458,
      "0748": 4459,
      "0746": 4460,
      "074c": 4461,
      "0741": 4462,
      "0740": 4463,
      "0749": 4464,
      "074e": 4465,
      "0747": 4466,
      "0742": 4467,
      "072f": 4468,
      "072a": 4469,
      "072d": 4470,
      "0723": 4471,
      "0725": 4472,
      "072b": 4473,
      "0728": 4474,
      "0726": 4475,
      "072c": 4476,
      "0721": 4477,
      "0720": 4478,
      "0729": 4479,
      "072e": 4480,
      "0727": 4481,
      "0724": 4482,
      "042f": 4483,
      "042a": 4484,
      "042d": 4485,
      "0423": 4486,
      "0425": 4487,
      "042b": 4488,
      "0428": 4489,
      "0426": 4490,
      "042c": 4491,
      "0421": 4492,
      "0420": 4493,
      "0429": 4494,
      "042e": 4495,
      "0427": 4496,
      "0424": 4497,
      "03df": 4498,
      "03da": 4499,
      "0b5f": 4500,
      "0b5a": 4501,
      "0b5d": 4502,
      "0b53": 4503,
      "068f": 4504,
      "068a": 4505,
      "068d": 4506,
      "0683": 4507,
      "0685": 4508,
      "068b": 4509,
      "01cf": 4510,
      "01ca": 4511,
      "01cd": 4512,
      "01c3": 4513,
      "01c5": 4514,
      "01cb": 4515,
      "01c8": 4516,
      "01c6": 4517,
      "090f": 4518,
      "090a": 4519,
      "090d": 4520,
      "0903": 4521,
      "0905": 4522,
      "090b": 4523,
      "0908": 4524,
      "0906": 4525,
      "090c": 4526,
      "0901": 4527,
      "07ef": 4528,
      "07ea": 4529,
      "07ed": 4530,
      "07e3": 4531,
      "07e5": 4532,
      "07eb": 4533,
      "07e8": 4534,
      "07e6": 4535,
      "07ec": 4536,
      "07e1": 4537,
      "07e0": 4538,
      "07e9": 4539,
      "085f": 4540,
      "085a": 4541,
      "085d": 4542,
      "0853": 4543,
      "08bf": 4544,
      "08ba": 4545,
      "08bd": 4546,
      "08b3": 4547,
      "065f": 4548,
      "065a": 4549,
      "065d": 4550,
      "0653": 4551,
      "06bf": 4552,
      "06ba": 4553,
      "06bd": 4554,
      "06b3": 4555,
      "00cf": 4556,
      "00ca": 4557,
      "00cd": 4558,
      "00c3": 4559,
      "00c5": 4560,
      "00cb": 4561,
      "00c8": 4562,
      "00c6": 4563,
      "001f": 4564,
      "001a": 4565,
      "001d": 4566,
      "0013": 4567,
      "0015": 4568,
      "001b": 4569,
      "0018": 4570,
      "0016": 4571,
      "09cf": 4572,
      "09ca": 4573,
      "09cd": 4574,
      "09c3": 4575,
      "09c5": 4576,
      "09cb": 4577,
      "09c8": 4578,
      "09c6": 4579,
      "091f": 4580,
      "091a": 4581,
      "091d": 4582,
      "0913": 4583,
      "0915": 4584,
      "091b": 4585,
      "0918": 4586,
      "0916": 4587,
      "1faa": 4588,
      "1fdd": 4589,
      "1f33": 4590,
      "1f55": 4591,
      "1fbb": 4592,
      "1f88": 4593,
      "1f66": 4594,
      "1fcc": 4595,
      "1f11": 4596,
      "1f00": 4597,
      "1f99": 4598,
      "1fee": 4599,
      "1f77": 4600,
      "1f44": 4601,
      "1f22": 4602,
      "1faf": 4603,
      "1fad": 4604,
      "1fa3": 4605,
      "1fa5": 4606,
      "1fab": 4607,
      "1fa8": 4608,
      "1fa6": 4609,
      "1fac": 4610,
      "1fa1": 4611,
      "1fa0": 4612,
      "1fa9": 4613,
      "1fae": 4614,
      "1fa7": 4615,
      "1fa4": 4616,
      "1fa2": 4617,
      "1fdf": 4618,
      "1fda": 4619,
      "1fd3": 4620,
      "1fd5": 4621,
      "1fdb": 4622,
      "1fd8": 4623,
      "1fd6": 4624,
      "1fdc": 4625,
      "1fd1": 4626,
      "1fd0": 4627,
      "1fd9": 4628,
      "1fde": 4629,
      "1fd7": 4630,
      "1fd4": 4631,
      "1fd2": 4632,
      "1f3f": 4633,
      "1f3a": 4634,
      "1f3d": 4635,
      "1f35": 4636,
      "1f3b": 4637,
      "1f38": 4638,
      "1f36": 4639,
      "1f3c": 4640,
      "1f31": 4641,
      "1f30": 4642,
      "1f39": 4643,
      "1f3e": 4644,
      "1f37": 4645,
      "1f34": 4646,
      "1f32": 4647,
      "1f5f": 4648,
      "1f5a": 4649,
      "1f5d": 4650,
      "1f53": 4651,
      "1f5b": 4652,
      "1f58": 4653,
      "1f56": 4654,
      "1f5c": 4655,
      "1f51": 4656,
      "1f50": 4657,
      "1f59": 4658,
      "1f5e": 4659,
      "1f57": 4660,
      "1f54": 4661,
      "1f52": 4662,
      "1fbf": 4663,
      "1fba": 4664,
      "1fbd": 4665,
      "1fb3": 4666,
      "1fb5": 4667,
      "1fb8": 4668,
      "1fb6": 4669,
      "1fbc": 4670,
      "1fb1": 4671,
      "1fb0": 4672,
      "1fb9": 4673,
      "1fbe": 4674,
      "1fb7": 4675,
      "1fb4": 4676,
      "1fb2": 4677,
      "1f8f": 4678,
      "1f8a": 4679,
      "1f8d": 4680,
      "1f83": 4681,
      "1f85": 4682,
      "1f8b": 4683,
      "1f86": 4684,
      "1f8c": 4685,
      "1f81": 4686,
      "1f80": 4687,
      "1f89": 4688,
      "1f8e": 4689,
      "1f87": 4690,
      "1f84": 4691,
      "1f82": 4692,
      "1f6f": 4693,
      "1f6a": 4694,
      "1f6d": 4695,
      "1f63": 4696,
      "1f65": 4697,
      "1f6b": 4698,
      "1f68": 4699,
      "1f6c": 4700,
      "1f61": 4701,
      "1f60": 4702,
      "1f69": 4703,
      "1f6e": 4704,
      "1f67": 4705,
      "1f64": 4706,
      "1f62": 4707,
      "1fcf": 4708,
      "1fca": 4709,
      "1fcd": 4710,
      "1fc3": 4711,
      "1fc5": 4712,
      "1fcb": 4713,
      "1fc8": 4714,
      "1fc6": 4715,
      "1fc1": 4716,
      "1fc0": 4717,
      "1fc9": 4718,
      "1fce": 4719,
      "1fc7": 4720,
      "1fc4": 4721,
      "1fc2": 4722,
      "1f1f": 4723,
      "1f1a": 4724,
      "1f1d": 4725,
      "1f13": 4726,
      "1f15": 4727,
      "1f1b": 4728,
      "1f18": 4729,
      "1f16": 4730,
      "1f1c": 4731,
      "1f10": 4732,
      "1f19": 4733,
      "1f1e": 4734,
      "1f17": 4735,
      "1f14": 4736,
      "1f12": 4737,
      "1f0f": 4738,
      "1f0a": 4739,
      "1f0d": 4740,
      "1f03": 4741,
      "1f05": 4742,
      "1f0b": 4743,
      "1f08": 4744,
      "1f06": 4745,
      "1f0c": 4746,
      "1f01": 4747,
      "1f09": 4748,
      "1f0e": 4749,
      "1f07": 4750,
      "1f04": 4751,
      "1f02": 4752,
      "1f9f": 4753,
      "1f9a": 4754,
      "1f9d": 4755,
      "1f93": 4756,
      "1f95": 4757,
      "1f9b": 4758,
      "1f98": 4759,
      "1f96": 4760,
      "1f9c": 4761,
      "1f91": 4762,
      "1f90": 4763,
      "1f9e": 4764,
      "1f97": 4765,
      "1f94": 4766,
      "1f92": 4767,
      "1fef": 4768,
      "1fea": 4769,
      "1fed": 4770,
      "1fe3": 4771,
      "1fe5": 4772,
      "1feb": 4773,
      "1fe8": 4774,
      "1fe6": 4775,
      "1fec": 4776,
      "1fe1": 4777,
      "1fe0": 4778,
      "1fe9": 4779,
      "1fe7": 4780,
      "1fe4": 4781,
      "1fe2": 4782,
      "1f7f": 4783,
      "1f7a": 4784,
      "1f7d": 4785,
      "1f73": 4786,
      "1f75": 4787,
      "1f7b": 4788,
      "1f78": 4789,
      "1f76": 4790,
      "1f7c": 4791,
      "1f71": 4792,
      "1f70": 4793,
      "1f79": 4794,
      "1f7e": 4795,
      "1f74": 4796,
      "1f72": 4797,
      "1f4f": 4798,
      "1f4a": 4799,
      "1f4d": 4800,
      "1f43": 4801,
      "1f45": 4802,
      "1f4b": 4803,
      "1f48": 4804,
      "1f46": 4805,
      "1f4c": 4806,
      "1f41": 4807,
      "1f40": 4808,
      "1f49": 4809,
      "1f4e": 4810,
      "1f47": 4811,
      "1f42": 4812,
      "1f2f": 4813,
      "1f2a": 4814,
      "1f2d": 4815,
      "1f23": 4816,
      "1f25": 4817,
      "1f2b": 4818,
      "1f28": 4819,
      "1f26": 4820,
      "1f2c": 4821,
      "1f21": 4822,
      "1f20": 4823,
      "1f29": 4824,
      "1f2e": 4825,
      "1f27": 4826,
      "1f24": 4827,
      "1adf": 4828,
      "1ada": 4829,
      "1ad3": 4830,
      "1ad5": 4831,
      "1adb": 4832,
      "1ad8": 4833,
      "1ad6": 4834,
      "1adc": 4835,
      "1ad1": 4836,
      "1ad0": 4837,
      "1ad9": 4838,
      "1ade": 4839,
      "1ad7": 4840,
      "1ad4": 4841,
      "1ad2": 4842,
      "1a3f": 4843,
      "1a3a": 4844,
      "1a3d": 4845,
      "1a35": 4846,
      "1a3b": 4847,
      "1a38": 4848,
      "1a36": 4849,
      "1a3c": 4850,
      "1a31": 4851,
      "1a30": 4852,
      "1a39": 4853,
      "1a3e": 4854,
      "1a37": 4855,
      "1a34": 4856,
      "1a32": 4857,
      "1a5f": 4858,
      "1a5a": 4859,
      "1a5d": 4860,
      "1a53": 4861,
      "1a5b": 4862,
      "1a58": 4863,
      "1a56": 4864,
      "1a5c": 4865,
      "1a51": 4866,
      "1a50": 4867,
      "1a59": 4868,
      "1a5e": 4869,
      "1a57": 4870,
      "1a54": 4871,
      "1a52": 4872,
      "1abf": 4873,
      "1aba": 4874,
      "1abd": 4875,
      "1ab3": 4876,
      "1ab5": 4877,
      "1ab8": 4878,
      "1ab6": 4879,
      "1abc": 4880,
      "1ab1": 4881,
      "1ab0": 4882,
      "1ab9": 4883,
      "1abe": 4884,
      "1ab7": 4885,
      "1ab4": 4886,
      "1ab2": 4887,
      "1a8f": 4888,
      "1a8a": 4889,
      "1a8d": 4890,
      "1a83": 4891,
      "1a85": 4892,
      "1a8b": 4893,
      "1a86": 4894,
      "1a8c": 4895,
      "1a81": 4896,
      "1a80": 4897,
      "1a89": 4898,
      "1a8e": 4899,
      "1a87": 4900,
      "1a84": 4901,
      "1a82": 4902,
      "1a6f": 4903,
      "1a6a": 4904,
      "1a6d": 4905,
      "1a63": 4906,
      "1a65": 4907,
      "1a6b": 4908,
      "1a68": 4909,
      "1a6c": 4910,
      "1a61": 4911,
      "1a60": 4912,
      "1a69": 4913,
      "1a6e": 4914,
      "1a67": 4915,
      "1a64": 4916,
      "1a62": 4917,
      "1acf": 4918,
      "1aca": 4919,
      "1acd": 4920,
      "1ac3": 4921,
      "1ac5": 4922,
      "1acb": 4923,
      "1ac8": 4924,
      "1ac6": 4925,
      "1ac1": 4926,
      "1ac0": 4927,
      "1ac9": 4928,
      "1ace": 4929,
      "1ac7": 4930,
      "1ac4": 4931,
      "1ac2": 4932,
      "1a1f": 4933,
      "1a1a": 4934,
      "1a1d": 4935,
      "1a13": 4936,
      "1a15": 4937,
      "1a1b": 4938,
      "1a18": 4939,
      "1a16": 4940,
      "1a1c": 4941,
      "1a10": 4942,
      "1a19": 4943,
      "1a1e": 4944,
      "1a17": 4945,
      "1a14": 4946,
      "1a12": 4947,
      "1a0f": 4948,
      "1a0a": 4949,
      "1a0d": 4950,
      "1a03": 4951,
      "1a05": 4952,
      "1a0b": 4953,
      "1a08": 4954,
      "1a06": 4955,
      "1a0c": 4956,
      "1a01": 4957,
      "1a09": 4958,
      "1a0e": 4959,
      "1a07": 4960,
      "1a04": 4961,
      "1a02": 4962,
      "1a9f": 4963,
      "1a9a": 4964,
      "1a9d": 4965,
      "1a93": 4966,
      "1a95": 4967,
      "1a9b": 4968,
      "1a98": 4969,
      "1a96": 4970,
      "1a9c": 4971,
      "1a91": 4972,
      "1a90": 4973,
      "1a9e": 4974,
      "1a97": 4975,
      "1a94": 4976,
      "1a92": 4977,
      "1aef": 4978,
      "1aea": 4979,
      "1aed": 4980,
      "1ae3": 4981,
      "1ae5": 4982,
      "1aeb": 4983,
      "1ae8": 4984,
      "1ae6": 4985,
      "1aec": 4986,
      "1ae1": 4987,
      "1ae0": 4988,
      "1ae9": 4989,
      "1ae7": 4990,
      "1ae4": 4991,
      "1ae2": 4992,
      "1a7f": 4993,
      "1a7a": 4994,
      "1a7d": 4995,
      "1a73": 4996,
      "1a75": 4997,
      "1a7b": 4998,
      "1a78": 4999,
      "1a76": 5000,
      "1a7c": 5001,
      "1a71": 5002,
      "1a70": 5003,
      "1a79": 5004,
      "1a7e": 5005,
      "1a74": 5006,
      "1a72": 5007,
      "1a4f": 5008,
      "1a4a": 5009,
      "1a4d": 5010,
      "1a43": 5011,
      "1a45": 5012,
      "1a4b": 5013,
      "1a48": 5014,
      "1a46": 5015,
      "1a4c": 5016,
      "1a41": 5017,
      "1a40": 5018,
      "1a49": 5019,
      "1a4e": 5020,
      "1a47": 5021,
      "1a42": 5022,
      "1a2f": 5023,
      "1a2a": 5024,
      "1a2d": 5025,
      "1a23": 5026,
      "1a25": 5027,
      "1a2b": 5028,
      "1a28": 5029,
      "1a26": 5030,
      "1a2c": 5031,
      "1a21": 5032,
      "1a20": 5033,
      "1a29": 5034,
      "1a2e": 5035,
      "1a27": 5036,
      "1a24": 5037,
      "1d3f": 5038,
      "1d3a": 5039,
      "1d3d": 5040,
      "1d35": 5041,
      "1d3b": 5042,
      "1d38": 5043,
      "1d36": 5044,
      "1d3c": 5045,
      "1d31": 5046,
      "1d30": 5047,
      "1d39": 5048,
      "1d3e": 5049,
      "1d37": 5050,
      "1d34": 5051,
      "1d32": 5052,
      "1d5f": 5053,
      "1d5a": 5054,
      "1d5d": 5055,
      "1d53": 5056,
      "1d5b": 5057,
      "1d58": 5058,
      "1d56": 5059,
      "1d5c": 5060,
      "1d51": 5061,
      "1d50": 5062,
      "1d59": 5063,
      "1d5e": 5064,
      "1d57": 5065,
      "1d54": 5066,
      "1d52": 5067,
      "1dbf": 5068,
      "1dba": 5069,
      "1dbd": 5070,
      "1db3": 5071,
      "1db5": 5072,
      "1db8": 5073,
      "1db6": 5074,
      "1dbc": 5075,
      "1db1": 5076,
      "1db0": 5077,
      "1db9": 5078,
      "1dbe": 5079,
      "1db7": 5080,
      "1db4": 5081,
      "1db2": 5082,
      "1d8f": 5083,
      "1d8a": 5084,
      "1d8d": 5085,
      "1d83": 5086,
      "1d85": 5087,
      "1d8b": 5088,
      "1d86": 5089,
      "1d8c": 5090,
      "1d81": 5091,
      "1d80": 5092,
      "1d89": 5093,
      "1d8e": 5094,
      "1d87": 5095,
      "1d84": 5096,
      "1d82": 5097,
      "1d6f": 5098,
      "1d6a": 5099,
      "1d6d": 5100,
      "1d63": 5101,
      "1d65": 5102,
      "1d6b": 5103,
      "1d68": 5104,
      "1d6c": 5105,
      "1d61": 5106,
      "1d60": 5107,
      "1d69": 5108,
      "1d6e": 5109,
      "1d67": 5110,
      "1d64": 5111,
      "1d62": 5112,
      "1dcf": 5113,
      "1dca": 5114,
      "1dcd": 5115,
      "1dc3": 5116,
      "1dc5": 5117,
      "1dcb": 5118,
      "1dc8": 5119,
      "1dc6": 5120,
      "1dc1": 5121,
      "1dc0": 5122,
      "1dc9": 5123,
      "1dce": 5124,
      "1dc7": 5125,
      "1dc4": 5126,
      "1dc2": 5127,
      "1d1f": 5128,
      "1d1a": 5129,
      "1d1d": 5130,
      "1d13": 5131,
      "1d15": 5132,
      "1d1b": 5133,
      "1d18": 5134,
      "1d16": 5135,
      "1d1c": 5136,
      "1d10": 5137,
      "1d19": 5138,
      "1d1e": 5139,
      "1d17": 5140,
      "1d14": 5141,
      "1d12": 5142,
      "1d0f": 5143,
      "1d0a": 5144,
      "1d0d": 5145,
      "1d03": 5146,
      "1d05": 5147,
      "1d0b": 5148,
      "1d08": 5149,
      "1d06": 5150,
      "1d0c": 5151,
      "1d01": 5152,
      "1d09": 5153,
      "1d0e": 5154,
      "1d07": 5155,
      "1d04": 5156,
      "1d02": 5157,
      "1d9f": 5158,
      "1d9a": 5159,
      "1d9d": 5160,
      "1d93": 5161,
      "1d95": 5162,
      "1d9b": 5163,
      "1d98": 5164,
      "1d96": 5165,
      "1d9c": 5166,
      "1d91": 5167,
      "1d90": 5168,
      "1d9e": 5169,
      "1d97": 5170,
      "1d94": 5171,
      "1d92": 5172,
      "1def": 5173,
      "1dea": 5174,
      "1ded": 5175,
      "1de3": 5176,
      "1de5": 5177,
      "1deb": 5178,
      "1de8": 5179,
      "1de6": 5180,
      "1dec": 5181,
      "1de1": 5182,
      "1de0": 5183,
      "1de9": 5184,
      "1de7": 5185,
      "1de4": 5186,
      "1de2": 5187,
      "1d7f": 5188,
      "1d7a": 5189,
      "1d7d": 5190,
      "1d73": 5191,
      "1d75": 5192,
      "1d7b": 5193,
      "1d78": 5194,
      "1d76": 5195,
      "1d7c": 5196,
      "1d71": 5197,
      "1d70": 5198,
      "1d79": 5199,
      "1d7e": 5200,
      "1d74": 5201,
      "1d72": 5202,
      "1d4f": 5203,
      "1d4a": 5204,
      "1d4d": 5205,
      "1d43": 5206,
      "1d45": 5207,
      "1d4b": 5208,
      "1d48": 5209,
      "1d46": 5210,
      "1d4c": 5211,
      "1d41": 5212,
      "1d40": 5213,
      "1d49": 5214,
      "1d4e": 5215,
      "1d47": 5216,
      "1d42": 5217,
      "1d2f": 5218,
      "1d2a": 5219,
      "1d2d": 5220,
      "1d23": 5221,
      "1d25": 5222,
      "1d2b": 5223,
      "1d28": 5224,
      "1d26": 5225,
      "1d2c": 5226,
      "1d21": 5227,
      "1d20": 5228,
      "1d29": 5229,
      "1d2e": 5230,
      "1d27": 5231,
      "1d24": 5232,
      "135f": 5233,
      "135a": 5234,
      "135d": 5235,
      "1353": 5236,
      "135b": 5237,
      "1358": 5238,
      "1356": 5239,
      "135c": 5240,
      "1351": 5241,
      "1350": 5242,
      "1359": 5243,
      "135e": 5244,
      "1357": 5245,
      "1354": 5246,
      "1352": 5247,
      "13bf": 5248,
      "13ba": 5249,
      "13bd": 5250,
      "13b3": 5251,
      "13b5": 5252,
      "13b8": 5253,
      "13b6": 5254,
      "13bc": 5255,
      "13b1": 5256,
      "13b0": 5257,
      "13b9": 5258,
      "13be": 5259,
      "13b7": 5260,
      "13b4": 5261,
      "13b2": 5262,
      "138f": 5263,
      "138a": 5264,
      "138d": 5265,
      "1383": 5266,
      "1385": 5267,
      "138b": 5268,
      "1386": 5269,
      "138c": 5270,
      "1381": 5271,
      "1380": 5272,
      "1389": 5273,
      "138e": 5274,
      "1387": 5275,
      "1384": 5276,
      "1382": 5277,
      "136f": 5278,
      "136a": 5279,
      "136d": 5280,
      "1363": 5281,
      "1365": 5282,
      "136b": 5283,
      "1368": 5284,
      "136c": 5285,
      "1361": 5286,
      "1360": 5287,
      "1369": 5288,
      "136e": 5289,
      "1367": 5290,
      "1364": 5291,
      "1362": 5292,
      "13cf": 5293,
      "13ca": 5294,
      "13cd": 5295,
      "13c3": 5296,
      "13c5": 5297,
      "13cb": 5298,
      "13c8": 5299,
      "13c6": 5300,
      "13c1": 5301,
      "13c0": 5302,
      "13c9": 5303,
      "13ce": 5304,
      "13c7": 5305,
      "13c4": 5306,
      "13c2": 5307,
      "131f": 5308,
      "131a": 5309,
      "131d": 5310,
      "1313": 5311,
      "1315": 5312,
      "131b": 5313,
      "1318": 5314,
      "1316": 5315,
      "131c": 5316,
      "1310": 5317,
      "1319": 5318,
      "131e": 5319,
      "1317": 5320,
      "1314": 5321,
      "1312": 5322,
      "130f": 5323,
      "130a": 5324,
      "130d": 5325,
      "1303": 5326,
      "1305": 5327,
      "130b": 5328,
      "1308": 5329,
      "1306": 5330,
      "130c": 5331,
      "1301": 5332,
      "1309": 5333,
      "130e": 5334,
      "1307": 5335,
      "1304": 5336,
      "1302": 5337,
      "139f": 5338,
      "139a": 5339,
      "139d": 5340,
      "1393": 5341,
      "1395": 5342,
      "139b": 5343,
      "1398": 5344,
      "1396": 5345,
      "139c": 5346,
      "1391": 5347,
      "1390": 5348,
      "139e": 5349,
      "1397": 5350,
      "1394": 5351,
      "1392": 5352,
      "13ef": 5353,
      "13ea": 5354,
      "13ed": 5355,
      "13e3": 5356,
      "13e5": 5357,
      "13eb": 5358,
      "13e8": 5359,
      "13e6": 5360,
      "13ec": 5361,
      "13e1": 5362,
      "13e0": 5363,
      "13e9": 5364,
      "13e7": 5365,
      "13e4": 5366,
      "13e2": 5367,
      "137f": 5368,
      "137a": 5369,
      "137d": 5370,
      "1373": 5371,
      "1375": 5372,
      "137b": 5373,
      "1378": 5374,
      "1376": 5375,
      "137c": 5376,
      "1371": 5377,
      "1370": 5378,
      "1379": 5379,
      "137e": 5380,
      "1374": 5381,
      "1372": 5382,
      "134f": 5383,
      "134a": 5384,
      "134d": 5385,
      "1343": 5386,
      "1345": 5387,
      "134b": 5388,
      "1348": 5389,
      "1346": 5390,
      "134c": 5391,
      "1341": 5392,
      "1340": 5393,
      "1349": 5394,
      "134e": 5395,
      "1347": 5396,
      "1342": 5397,
      "132f": 5398,
      "132a": 5399,
      "132d": 5400,
      "1323": 5401,
      "1325": 5402,
      "132b": 5403,
      "1328": 5404,
      "1326": 5405,
      "132c": 5406,
      "1321": 5407,
      "1320": 5408,
      "1329": 5409,
      "132e": 5410,
      "1327": 5411,
      "1324": 5412,
      "15bf": 5413,
      "15ba": 5414,
      "15bd": 5415,
      "15b3": 5416,
      "15b5": 5417,
      "15b8": 5418,
      "15b6": 5419,
      "15bc": 5420,
      "15b1": 5421,
      "15b0": 5422,
      "15b9": 5423,
      "15be": 5424,
      "15b7": 5425,
      "15b4": 5426,
      "15b2": 5427,
      "158f": 5428,
      "158a": 5429,
      "158d": 5430,
      "1583": 5431,
      "1585": 5432,
      "158b": 5433,
      "1586": 5434,
      "158c": 5435,
      "1581": 5436,
      "1580": 5437,
      "1589": 5438,
      "158e": 5439,
      "1587": 5440,
      "1584": 5441,
      "1582": 5442,
      "156f": 5443,
      "156a": 5444,
      "156d": 5445,
      "1563": 5446,
      "1565": 5447,
      "156b": 5448,
      "1568": 5449,
      "156c": 5450,
      "1561": 5451,
      "1560": 5452,
      "1569": 5453,
      "156e": 5454,
      "1567": 5455,
      "1564": 5456,
      "1562": 5457,
      "15cf": 5458,
      "15ca": 5459,
      "15cd": 5460,
      "15c3": 5461,
      "15c5": 5462,
      "15cb": 5463,
      "15c8": 5464,
      "15c6": 5465,
      "15c1": 5466,
      "15c0": 5467,
      "15c9": 5468,
      "15ce": 5469,
      "15c7": 5470,
      "15c4": 5471,
      "15c2": 5472,
      "151f": 5473,
      "151a": 5474,
      "151d": 5475,
      "1513": 5476,
      "1515": 5477,
      "151b": 5478,
      "1518": 5479,
      "1516": 5480,
      "151c": 5481,
      "1510": 5482,
      "1519": 5483,
      "151e": 5484,
      "1517": 5485,
      "1514": 5486,
      "1512": 5487,
      "150f": 5488,
      "150a": 5489,
      "150d": 5490,
      "1503": 5491,
      "1505": 5492,
      "150b": 5493,
      "1508": 5494,
      "1506": 5495,
      "150c": 5496,
      "1501": 5497,
      "1509": 5498,
      "150e": 5499,
      "1507": 5500,
      "1504": 5501,
      "1502": 5502,
      "159f": 5503,
      "159a": 5504,
      "159d": 5505,
      "1593": 5506,
      "1595": 5507,
      "159b": 5508,
      "1598": 5509,
      "1596": 5510,
      "159c": 5511,
      "1591": 5512,
      "1590": 5513,
      "159e": 5514,
      "1597": 5515,
      "1594": 5516,
      "1592": 5517,
      "15ef": 5518,
      "15ea": 5519,
      "15ed": 5520,
      "15e3": 5521,
      "15e5": 5522,
      "15eb": 5523,
      "15e8": 5524,
      "15e6": 5525,
      "15ec": 5526,
      "15e1": 5527,
      "15e0": 5528,
      "15e9": 5529,
      "15e7": 5530,
      "15e4": 5531,
      "15e2": 5532,
      "157f": 5533,
      "157a": 5534,
      "157d": 5535,
      "1573": 5536,
      "1575": 5537,
      "157b": 5538,
      "1578": 5539,
      "1576": 5540,
      "157c": 5541,
      "1571": 5542,
      "1570": 5543,
      "1579": 5544,
      "157e": 5545,
      "1574": 5546,
      "1572": 5547,
      "154f": 5548,
      "154a": 5549,
      "154d": 5550,
      "1543": 5551,
      "1545": 5552,
      "154b": 5553,
      "1548": 5554,
      "1546": 5555,
      "154c": 5556,
      "1541": 5557,
      "1540": 5558,
      "1549": 5559,
      "154e": 5560,
      "1547": 5561,
      "1542": 5562,
      "152f": 5563,
      "152a": 5564,
      "152d": 5565,
      "1523": 5566,
      "1525": 5567,
      "152b": 5568,
      "1528": 5569,
      "1526": 5570,
      "152c": 5571,
      "1521": 5572,
      "1520": 5573,
      "1529": 5574,
      "152e": 5575,
      "1527": 5576,
      "1524": 5577,
      "1b8f": 5578,
      "1b8a": 5579,
      "1b8d": 5580,
      "1b83": 5581,
      "1b85": 5582,
      "1b8b": 5583,
      "1b86": 5584,
      "1b8c": 5585,
      "1b81": 5586,
      "1b80": 5587,
      "1b89": 5588,
      "1b8e": 5589,
      "1b87": 5590,
      "1b84": 5591,
      "1b82": 5592,
      "1b6f": 5593,
      "1b6a": 5594,
      "1b6d": 5595,
      "1b63": 5596,
      "1b65": 5597,
      "1b6b": 5598,
      "1b68": 5599,
      "1b6c": 5600,
      "1b61": 5601,
      "1b60": 5602,
      "1b69": 5603,
      "1b6e": 5604,
      "1b67": 5605,
      "1b64": 5606,
      "1b62": 5607,
      "1bcf": 5608,
      "1bca": 5609,
      "1bcd": 5610,
      "1bc3": 5611,
      "1bc5": 5612,
      "1bcb": 5613,
      "1bc8": 5614,
      "1bc6": 5615,
      "1bc1": 5616,
      "1bc0": 5617,
      "1bc9": 5618,
      "1bce": 5619,
      "1bc7": 5620,
      "1bc4": 5621,
      "1bc2": 5622,
      "1b1f": 5623,
      "1b1a": 5624,
      "1b1d": 5625,
      "1b13": 5626,
      "1b15": 5627,
      "1b1b": 5628,
      "1b18": 5629,
      "1b16": 5630,
      "1b1c": 5631,
      "1b10": 5632,
      "1b19": 5633,
      "1b1e": 5634,
      "1b17": 5635,
      "1b14": 5636,
      "1b12": 5637,
      "1b0f": 5638,
      "1b0a": 5639,
      "1b0d": 5640,
      "1b03": 5641,
      "1b05": 5642,
      "1b0b": 5643,
      "1b08": 5644,
      "1b06": 5645,
      "1b0c": 5646,
      "1b01": 5647,
      "1b09": 5648,
      "1b0e": 5649,
      "1b07": 5650,
      "1b04": 5651,
      "1b02": 5652,
      "1b9f": 5653,
      "1b9a": 5654,
      "1b9d": 5655,
      "1b93": 5656,
      "1b95": 5657,
      "1b9b": 5658,
      "1b98": 5659,
      "1b96": 5660,
      "1b9c": 5661,
      "1b91": 5662,
      "1b90": 5663,
      "1b9e": 5664,
      "1b97": 5665,
      "1b94": 5666,
      "1b92": 5667,
      "1bef": 5668,
      "1bea": 5669,
      "1bed": 5670,
      "1be3": 5671,
      "1be5": 5672,
      "1beb": 5673,
      "1be8": 5674,
      "1be6": 5675,
      "1bec": 5676,
      "1be1": 5677,
      "1be0": 5678,
      "1be9": 5679,
      "1be7": 5680,
      "1be4": 5681,
      "1be2": 5682,
      "1b7f": 5683,
      "1b7a": 5684,
      "1b7d": 5685,
      "1b73": 5686,
      "1b75": 5687,
      "1b7b": 5688,
      "1b78": 5689,
      "1b76": 5690,
      "1b7c": 5691,
      "1b71": 5692,
      "1b70": 5693,
      "1b79": 5694,
      "1b7e": 5695,
      "1b74": 5696,
      "1b72": 5697,
      "1b4f": 5698,
      "1b4a": 5699,
      "1b4d": 5700,
      "1b43": 5701,
      "1b45": 5702,
      "1b4b": 5703,
      "1b48": 5704,
      "1b46": 5705,
      "1b4c": 5706,
      "1b41": 5707,
      "1b40": 5708,
      "1b49": 5709,
      "1b4e": 5710,
      "1b47": 5711,
      "1b42": 5712,
      "1b2f": 5713,
      "1b2a": 5714,
      "1b2d": 5715,
      "1b23": 5716,
      "1b25": 5717,
      "1b2b": 5718,
      "1b28": 5719,
      "1b26": 5720,
      "1b2c": 5721,
      "1b21": 5722,
      "1b20": 5723,
      "1b29": 5724,
      "1b2e": 5725,
      "1b27": 5726,
      "1b24": 5727,
      "186f": 5728,
      "186a": 5729,
      "186d": 5730,
      "1863": 5731,
      "1865": 5732,
      "186b": 5733,
      "1868": 5734,
      "186c": 5735,
      "1861": 5736,
      "1860": 5737,
      "1869": 5738,
      "186e": 5739,
      "1867": 5740,
      "1864": 5741,
      "1862": 5742,
      "18cf": 5743,
      "18ca": 5744,
      "18cd": 5745,
      "18c3": 5746,
      "18c5": 5747,
      "18cb": 5748,
      "18c8": 5749,
      "18c6": 5750,
      "18c1": 5751,
      "18c0": 5752,
      "18c9": 5753,
      "18ce": 5754,
      "18c7": 5755,
      "18c4": 5756,
      "18c2": 5757,
      "181f": 5758,
      "181a": 5759,
      "181d": 5760,
      "1813": 5761,
      "1815": 5762,
      "181b": 5763,
      "1818": 5764,
      "1816": 5765,
      "181c": 5766,
      "1810": 5767,
      "1819": 5768,
      "181e": 5769,
      "1817": 5770,
      "1814": 5771,
      "1812": 5772,
      "180f": 5773,
      "180a": 5774,
      "180d": 5775,
      "1803": 5776,
      "1805": 5777,
      "180b": 5778,
      "1808": 5779,
      "1806": 5780,
      "180c": 5781,
      "1801": 5782,
      "1809": 5783,
      "180e": 5784,
      "1807": 5785,
      "1804": 5786,
      "1802": 5787,
      "189f": 5788,
      "189a": 5789,
      "189d": 5790,
      "1893": 5791,
      "1895": 5792,
      "189b": 5793,
      "1898": 5794,
      "1896": 5795,
      "189c": 5796,
      "1891": 5797,
      "1890": 5798,
      "189e": 5799,
      "1897": 5800,
      "1894": 5801,
      "1892": 5802,
      "18ef": 5803,
      "18ea": 5804,
      "18ed": 5805,
      "18e3": 5806,
      "18e5": 5807,
      "18eb": 5808,
      "18e8": 5809,
      "18e6": 5810,
      "18ec": 5811,
      "18e1": 5812,
      "18e0": 5813,
      "18e9": 5814,
      "18e7": 5815,
      "18e4": 5816,
      "18e2": 5817,
      "187f": 5818,
      "187a": 5819,
      "187d": 5820,
      "1873": 5821,
      "1875": 5822,
      "187b": 5823,
      "1878": 5824,
      "1876": 5825,
      "187c": 5826,
      "1871": 5827,
      "1870": 5828,
      "1879": 5829,
      "187e": 5830,
      "1874": 5831,
      "1872": 5832,
      "184f": 5833,
      "184a": 5834,
      "184d": 5835,
      "1843": 5836,
      "1845": 5837,
      "184b": 5838,
      "1848": 5839,
      "1846": 5840,
      "184c": 5841,
      "1841": 5842,
      "1840": 5843,
      "1849": 5844,
      "184e": 5845,
      "1847": 5846,
      "1842": 5847,
      "182f": 5848,
      "182a": 5849,
      "182d": 5850,
      "1823": 5851,
      "1825": 5852,
      "182b": 5853,
      "1828": 5854,
      "1826": 5855,
      "182c": 5856,
      "1821": 5857,
      "1820": 5858,
      "1829": 5859,
      "182e": 5860,
      "1827": 5861,
      "1824": 5862,
      "16cf": 5863,
      "16ca": 5864,
      "16cd": 5865,
      "16c3": 5866,
      "16c5": 5867,
      "16cb": 5868,
      "16c8": 5869,
      "16c6": 5870,
      "16c1": 5871,
      "16c0": 5872,
      "16c9": 5873,
      "16ce": 5874,
      "16c7": 5875,
      "16c4": 5876,
      "16c2": 5877,
      "161f": 5878,
      "161a": 5879,
      "161d": 5880,
      "1613": 5881,
      "1615": 5882,
      "161b": 5883,
      "1618": 5884,
      "1616": 5885,
      "161c": 5886,
      "1610": 5887,
      "1619": 5888,
      "161e": 5889,
      "1617": 5890,
      "1614": 5891,
      "1612": 5892,
      "160f": 5893,
      "160a": 5894,
      "160d": 5895,
      "1603": 5896,
      "1605": 5897,
      "160b": 5898,
      "1608": 5899,
      "1606": 5900,
      "160c": 5901,
      "1601": 5902,
      "1609": 5903,
      "160e": 5904,
      "1607": 5905,
      "1604": 5906,
      "1602": 5907,
      "169f": 5908,
      "169a": 5909,
      "169d": 5910,
      "1693": 5911,
      "1695": 5912,
      "169b": 5913,
      "1698": 5914,
      "1696": 5915,
      "169c": 5916,
      "1691": 5917,
      "1690": 5918,
      "169e": 5919,
      "1697": 5920,
      "1694": 5921,
      "1692": 5922,
      "16ef": 5923,
      "16ea": 5924,
      "16ed": 5925,
      "16e3": 5926,
      "16e5": 5927,
      "16eb": 5928,
      "16e8": 5929,
      "16e6": 5930,
      "16ec": 5931,
      "16e1": 5932,
      "16e0": 5933,
      "16e9": 5934,
      "16e7": 5935,
      "16e4": 5936,
      "16e2": 5937,
      "167f": 5938,
      "167a": 5939,
      "167d": 5940,
      "1673": 5941,
      "1675": 5942,
      "167b": 5943,
      "1678": 5944,
      "1676": 5945,
      "167c": 5946,
      "1671": 5947,
      "1670": 5948,
      "1679": 5949,
      "167e": 5950,
      "1674": 5951,
      "1672": 5952,
      "164f": 5953,
      "164a": 5954,
      "164d": 5955,
      "1643": 5956,
      "1645": 5957,
      "164b": 5958,
      "1648": 5959,
      "1646": 5960,
      "164c": 5961,
      "1641": 5962,
      "1640": 5963,
      "1649": 5964,
      "164e": 5965,
      "1647": 5966,
      "1642": 5967,
      "162f": 5968,
      "162a": 5969,
      "162d": 5970,
      "1623": 5971,
      "1625": 5972,
      "162b": 5973,
      "1628": 5974,
      "1626": 5975,
      "162c": 5976,
      "1621": 5977,
      "1620": 5978,
      "1629": 5979,
      "162e": 5980,
      "1627": 5981,
      "1624": 5982,
      "1c1f": 5983,
      "1c1a": 5984,
      "1c1d": 5985,
      "1c13": 5986,
      "1c15": 5987,
      "1c1b": 5988,
      "1c18": 5989,
      "1c16": 5990,
      "1c1c": 5991,
      "1c10": 5992,
      "1c19": 5993,
      "1c1e": 5994,
      "1c17": 5995,
      "1c14": 5996,
      "1c12": 5997,
      "1c0f": 5998,
      "1c0a": 5999,
      "1c0d": 6000,
      "1c03": 6001,
      "1c05": 6002,
      "1c0b": 6003,
      "1c08": 6004,
      "1c06": 6005,
      "1c0c": 6006,
      "1c01": 6007,
      "1c09": 6008,
      "1c0e": 6009,
      "1c07": 6010,
      "1c04": 6011,
      "1c02": 6012,
      "1c9f": 6013,
      "1c9a": 6014,
      "1c9d": 6015,
      "1c93": 6016,
      "1c95": 6017,
      "1c9b": 6018,
      "1c98": 6019,
      "1c96": 6020,
      "1c9c": 6021,
      "1c91": 6022,
      "1c90": 6023,
      "1c9e": 6024,
      "1c97": 6025,
      "1c94": 6026,
      "1c92": 6027,
      "1cef": 6028,
      "1cea": 6029,
      "1ced": 6030,
      "1ce3": 6031,
      "1ce5": 6032,
      "1ceb": 6033,
      "1ce8": 6034,
      "1ce6": 6035,
      "1cec": 6036,
      "1ce1": 6037,
      "1ce0": 6038,
      "1ce9": 6039,
      "1ce7": 6040,
      "1ce4": 6041,
      "1ce2": 6042,
      "1c7f": 6043,
      "1c7a": 6044,
      "1c7d": 6045,
      "1c73": 6046,
      "1c75": 6047,
      "1c7b": 6048,
      "1c78": 6049,
      "1c76": 6050,
      "1c7c": 6051,
      "1c71": 6052,
      "1c70": 6053,
      "1c79": 6054,
      "1c7e": 6055,
      "1c74": 6056,
      "1c72": 6057,
      "1c4f": 6058,
      "1c4a": 6059,
      "1c4d": 6060,
      "1c43": 6061,
      "1c45": 6062,
      "1c4b": 6063,
      "1c48": 6064,
      "1c46": 6065,
      "1c4c": 6066,
      "1c41": 6067,
      "1c40": 6068,
      "1c49": 6069,
      "1c4e": 6070,
      "1c47": 6071,
      "1c42": 6072,
      "1c2f": 6073,
      "1c2a": 6074,
      "1c2d": 6075,
      "1c23": 6076,
      "1c25": 6077,
      "1c2b": 6078,
      "1c28": 6079,
      "1c26": 6080,
      "1c2c": 6081,
      "1c21": 6082,
      "1c20": 6083,
      "1c29": 6084,
      "1c2e": 6085,
      "1c27": 6086,
      "1c24": 6087,
      "110f": 6088,
      "110a": 6089,
      "110d": 6090,
      "1103": 6091,
      "1105": 6092,
      "110b": 6093,
      "1108": 6094,
      "1106": 6095,
      "110c": 6096,
      "1101": 6097,
      "1109": 6098,
      "110e": 6099,
      "1107": 6100,
      "1104": 6101,
      "1102": 6102,
      "119f": 6103,
      "119a": 6104,
      "119d": 6105,
      "1193": 6106,
      "1195": 6107,
      "119b": 6108,
      "1198": 6109,
      "1196": 6110,
      "119c": 6111,
      "1191": 6112,
      "1190": 6113,
      "119e": 6114,
      "1197": 6115,
      "1194": 6116,
      "1192": 6117,
      "11ef": 6118,
      "11ea": 6119,
      "11ed": 6120,
      "11e3": 6121,
      "11e5": 6122,
      "11eb": 6123,
      "11e8": 6124,
      "11e6": 6125,
      "11ec": 6126,
      "11e1": 6127,
      "11e0": 6128,
      "11e9": 6129,
      "11e7": 6130,
      "11e4": 6131,
      "11e2": 6132,
      "117f": 6133,
      "117a": 6134,
      "117d": 6135,
      "1173": 6136,
      "1175": 6137,
      "117b": 6138,
      "1178": 6139,
      "1176": 6140,
      "117c": 6141,
      "1171": 6142,
      "1170": 6143,
      "1179": 6144,
      "117e": 6145,
      "1174": 6146,
      "1172": 6147,
      "114f": 6148,
      "114a": 6149,
      "114d": 6150,
      "1143": 6151,
      "1145": 6152,
      "114b": 6153,
      "1148": 6154,
      "1146": 6155,
      "114c": 6156,
      "1141": 6157,
      "1140": 6158,
      "1149": 6159,
      "114e": 6160,
      "1147": 6161,
      "1142": 6162,
      "112f": 6163,
      "112a": 6164,
      "112d": 6165,
      "1123": 6166,
      "1125": 6167,
      "112b": 6168,
      "1128": 6169,
      "1126": 6170,
      "112c": 6171,
      "1121": 6172,
      "1120": 6173,
      "1129": 6174,
      "112e": 6175,
      "1127": 6176,
      "1124": 6177,
      "109f": 6178,
      "109a": 6179,
      "109d": 6180,
      "1093": 6181,
      "1095": 6182,
      "109b": 6183,
      "1098": 6184,
      "1096": 6185,
      "109c": 6186,
      "1091": 6187,
      "1090": 6188,
      "109e": 6189,
      "1097": 6190,
      "1094": 6191,
      "1092": 6192,
      "10ef": 6193,
      "10ea": 6194,
      "10ed": 6195,
      "10e3": 6196,
      "10e5": 6197,
      "10eb": 6198,
      "10e8": 6199,
      "10e6": 6200,
      "10ec": 6201,
      "10e1": 6202,
      "10e0": 6203,
      "10e9": 6204,
      "10e7": 6205,
      "10e4": 6206,
      "10e2": 6207,
      "107f": 6208,
      "107a": 6209,
      "107d": 6210,
      "1073": 6211,
      "1075": 6212,
      "107b": 6213,
      "1078": 6214,
      "1076": 6215,
      "107c": 6216,
      "1071": 6217,
      "1070": 6218,
      "1079": 6219,
      "107e": 6220,
      "1074": 6221,
      "1072": 6222,
      "104f": 6223,
      "104a": 6224,
      "104d": 6225,
      "1043": 6226,
      "1045": 6227,
      "104b": 6228,
      "1048": 6229,
      "1046": 6230,
      "104c": 6231,
      "1041": 6232,
      "1040": 6233,
      "1049": 6234,
      "104e": 6235,
      "1047": 6236,
      "1042": 6237,
      "102f": 6238,
      "102a": 6239,
      "102d": 6240,
      "1023": 6241,
      "1025": 6242,
      "102b": 6243,
      "1028": 6244,
      "1026": 6245,
      "102c": 6246,
      "1021": 6247,
      "1020": 6248,
      "1029": 6249,
      "102e": 6250,
      "1027": 6251,
      "1024": 6252,
      "19ef": 6253,
      "19ea": 6254,
      "19ed": 6255,
      "19e3": 6256,
      "19e5": 6257,
      "19eb": 6258,
      "19e8": 6259,
      "19e6": 6260,
      "19ec": 6261,
      "19e1": 6262,
      "19e0": 6263,
      "19e9": 6264,
      "19e7": 6265,
      "19e4": 6266,
      "19e2": 6267,
      "197f": 6268,
      "197a": 6269,
      "197d": 6270,
      "1973": 6271,
      "1975": 6272,
      "197b": 6273,
      "1978": 6274,
      "1976": 6275,
      "197c": 6276,
      "1971": 6277,
      "1970": 6278,
      "1979": 6279,
      "197e": 6280,
      "1974": 6281,
      "1972": 6282,
      "194f": 6283,
      "194a": 6284,
      "194d": 6285,
      "1943": 6286,
      "1945": 6287,
      "194b": 6288,
      "1948": 6289,
      "1946": 6290,
      "194c": 6291,
      "1941": 6292,
      "1940": 6293,
      "1949": 6294,
      "194e": 6295,
      "1947": 6296,
      "1942": 6297,
      "192f": 6298,
      "192a": 6299,
      "192d": 6300,
      "1923": 6301,
      "1925": 6302,
      "192b": 6303,
      "1928": 6304,
      "1926": 6305,
      "192c": 6306,
      "1921": 6307,
      "1920": 6308,
      "1929": 6309,
      "192e": 6310,
      "1927": 6311,
      "1924": 6312,
      "1e7f": 6313,
      "1e7a": 6314,
      "1e7d": 6315,
      "1e73": 6316,
      "1e75": 6317,
      "1e7b": 6318,
      "1e78": 6319,
      "1e76": 6320,
      "1e7c": 6321,
      "1e71": 6322,
      "1e70": 6323,
      "1e79": 6324,
      "1e7e": 6325,
      "1e74": 6326,
      "1e72": 6327,
      "1e4f": 6328,
      "1e4a": 6329,
      "1e4d": 6330,
      "1e43": 6331,
      "1e45": 6332,
      "1e4b": 6333,
      "1e48": 6334,
      "1e46": 6335,
      "1e4c": 6336,
      "1e41": 6337,
      "1e40": 6338,
      "1e49": 6339,
      "1e4e": 6340,
      "1e47": 6341,
      "1e42": 6342,
      "1e2f": 6343,
      "1e2a": 6344,
      "1e2d": 6345,
      "1e23": 6346,
      "1e25": 6347,
      "1e2b": 6348,
      "1e28": 6349,
      "1e26": 6350,
      "1e2c": 6351,
      "1e21": 6352,
      "1e20": 6353,
      "1e29": 6354,
      "1e2e": 6355,
      "1e27": 6356,
      "1e24": 6357,
      "174f": 6358,
      "174a": 6359,
      "174d": 6360,
      "1743": 6361,
      "1745": 6362,
      "174b": 6363,
      "1748": 6364,
      "1746": 6365,
      "174c": 6366,
      "1741": 6367,
      "1740": 6368,
      "1749": 6369,
      "174e": 6370,
      "1747": 6371,
      "1742": 6372,
      "172f": 6373,
      "172a": 6374,
      "172d": 6375,
      "1723": 6376,
      "1725": 6377,
      "172b": 6378,
      "1728": 6379,
      "1726": 6380,
      "172c": 6381,
      "1721": 6382,
      "1720": 6383,
      "1729": 6384,
      "172e": 6385,
      "1727": 6386,
      "1724": 6387,
      "142f": 6388,
      "142a": 6389,
      "142d": 6390,
      "1423": 6391,
      "1425": 6392,
      "142b": 6393,
      "1428": 6394,
      "1426": 6395,
      "142c": 6396,
      "1421": 6397,
      "1420": 6398,
      "1429": 6399,
      "142e": 6400,
      "1427": 6401,
      "1424": 6402,
      "13df": 6403,
      "13da": 6404,
      "1b5f": 6405,
      "1b5a": 6406,
      "1b5d": 6407,
      "1b53": 6408,
      "168f": 6409,
      "168a": 6410,
      "168d": 6411,
      "1683": 6412,
      "1685": 6413,
      "168b": 6414,
      "11cf": 6415,
      "11ca": 6416,
      "11cd": 6417,
      "11c3": 6418,
      "11c5": 6419,
      "11cb": 6420,
      "11c8": 6421,
      "11c6": 6422,
      "190f": 6423,
      "190a": 6424,
      "190d": 6425,
      "1903": 6426,
      "1905": 6427,
      "190b": 6428,
      "1908": 6429,
      "1906": 6430,
      "190c": 6431,
      "1901": 6432,
      "17ef": 6433,
      "17ea": 6434,
      "17ed": 6435,
      "17e3": 6436,
      "17e5": 6437,
      "17eb": 6438,
      "17e8": 6439,
      "17e6": 6440,
      "17ec": 6441,
      "17e1": 6442,
      "17e0": 6443,
      "17e9": 6444,
      "185f": 6445,
      "185a": 6446,
      "185d": 6447,
      "1853": 6448,
      "18bf": 6449,
      "18ba": 6450,
      "18bd": 6451,
      "18b3": 6452,
      "165f": 6453,
      "165a": 6454,
      "165d": 6455,
      "1653": 6456,
      "16bf": 6457,
      "16ba": 6458,
      "16bd": 6459,
      "16b3": 6460,
      "10cf": 6461,
      "10ca": 6462,
      "10cd": 6463,
      "10c3": 6464,
      "10c5": 6465,
      "10cb": 6466,
      "10c8": 6467,
      "10c6": 6468,
      "101f": 6469,
      "101a": 6470,
      "101d": 6471,
      "1013": 6472,
      "1015": 6473,
      "101b": 6474,
      "1018": 6475,
      "1016": 6476,
      "19cf": 6477,
      "19ca": 6478,
      "19cd": 6479,
      "19c3": 6480,
      "19c5": 6481,
      "19cb": 6482,
      "19c8": 6483,
      "19c6": 6484,
      "191f": 6485,
      "191a": 6486,
      "191d": 6487,
      "1913": 6488,
      "1915": 6489,
      "191b": 6490,
      "1918": 6491,
      "1916": 6492,
      "2faa": 6493,
      "2fdd": 6494,
      "2f33": 6495,
      "2f55": 6496,
      "2fbb": 6497,
      "2f88": 6498,
      "2f66": 6499,
      "2fcc": 6500,
      "2f11": 6501,
      "2f00": 6502,
      "2f99": 6503,
      "2fee": 6504,
      "2f77": 6505,
      "2f44": 6506,
      "2f22": 6507,
      "2faf": 6508,
      "2fad": 6509,
      "2fa3": 6510,
      "2fa5": 6511,
      "2fab": 6512,
      "2fa8": 6513,
      "2fa6": 6514,
      "2fac": 6515,
      "2fa1": 6516,
      "2fa0": 6517,
      "2fa9": 6518,
      "2fae": 6519,
      "2fa7": 6520,
      "2fa4": 6521,
      "2fa2": 6522,
      "2fdf": 6523,
      "2fda": 6524,
      "2fd3": 6525,
      "2fd5": 6526,
      "2fdb": 6527,
      "2fd8": 6528,
      "2fd6": 6529,
      "2fdc": 6530,
      "2fd1": 6531,
      "2fd0": 6532,
      "2fd9": 6533,
      "2fde": 6534,
      "2fd7": 6535,
      "2fd4": 6536,
      "2fd2": 6537,
      "2f3f": 6538,
      "2f3a": 6539,
      "2f3d": 6540,
      "2f35": 6541,
      "2f3b": 6542,
      "2f38": 6543,
      "2f36": 6544,
      "2f3c": 6545,
      "2f31": 6546,
      "2f30": 6547,
      "2f39": 6548,
      "2f3e": 6549,
      "2f37": 6550,
      "2f34": 6551,
      "2f32": 6552,
      "2f5f": 6553,
      "2f5a": 6554,
      "2f5d": 6555,
      "2f53": 6556,
      "2f5b": 6557,
      "2f58": 6558,
      "2f56": 6559,
      "2f5c": 6560,
      "2f51": 6561,
      "2f50": 6562,
      "2f59": 6563,
      "2f5e": 6564,
      "2f57": 6565,
      "2f54": 6566,
      "2f52": 6567,
      "2fbf": 6568,
      "2fba": 6569,
      "2fbd": 6570,
      "2fb3": 6571,
      "2fb5": 6572,
      "2fb8": 6573,
      "2fb6": 6574,
      "2fbc": 6575,
      "2fb1": 6576,
      "2fb0": 6577,
      "2fb9": 6578,
      "2fbe": 6579,
      "2fb7": 6580,
      "2fb4": 6581,
      "2fb2": 6582,
      "2f8f": 6583,
      "2f8a": 6584,
      "2f8d": 6585,
      "2f83": 6586,
      "2f85": 6587,
      "2f8b": 6588,
      "2f86": 6589,
      "2f8c": 6590,
      "2f81": 6591,
      "2f80": 6592,
      "2f89": 6593,
      "2f8e": 6594,
      "2f87": 6595,
      "2f84": 6596,
      "2f82": 6597,
      "2f6f": 6598,
      "2f6a": 6599,
      "2f6d": 6600,
      "2f63": 6601,
      "2f65": 6602,
      "2f6b": 6603,
      "2f68": 6604,
      "2f6c": 6605,
      "2f61": 6606,
      "2f60": 6607,
      "2f69": 6608,
      "2f6e": 6609,
      "2f67": 6610,
      "2f64": 6611,
      "2f62": 6612,
      "2fcf": 6613,
      "2fca": 6614,
      "2fcd": 6615,
      "2fc3": 6616,
      "2fc5": 6617,
      "2fcb": 6618,
      "2fc8": 6619,
      "2fc6": 6620,
      "2fc1": 6621,
      "2fc0": 6622,
      "2fc9": 6623,
      "2fce": 6624,
      "2fc7": 6625,
      "2fc4": 6626,
      "2fc2": 6627,
      "2f1f": 6628,
      "2f1a": 6629,
      "2f1d": 6630,
      "2f13": 6631,
      "2f15": 6632,
      "2f1b": 6633,
      "2f18": 6634,
      "2f16": 6635,
      "2f1c": 6636,
      "2f10": 6637,
      "2f19": 6638,
      "2f1e": 6639,
      "2f17": 6640,
      "2f14": 6641,
      "2f12": 6642,
      "2f0f": 6643,
      "2f0a": 6644,
      "2f0d": 6645,
      "2f03": 6646,
      "2f05": 6647,
      "2f0b": 6648,
      "2f08": 6649,
      "2f06": 6650,
      "2f0c": 6651,
      "2f01": 6652,
      "2f09": 6653,
      "2f0e": 6654,
      "2f07": 6655,
      "2f04": 6656,
      "2f02": 6657,
      "2f9f": 6658,
      "2f9a": 6659,
      "2f9d": 6660,
      "2f93": 6661,
      "2f95": 6662,
      "2f9b": 6663,
      "2f98": 6664,
      "2f96": 6665,
      "2f9c": 6666,
      "2f91": 6667,
      "2f90": 6668,
      "2f9e": 6669,
      "2f97": 6670,
      "2f94": 6671,
      "2f92": 6672,
      "2fef": 6673,
      "2fea": 6674,
      "2fed": 6675,
      "2fe3": 6676,
      "2fe5": 6677,
      "2feb": 6678,
      "2fe8": 6679,
      "2fe6": 6680,
      "2fec": 6681,
      "2fe1": 6682,
      "2fe0": 6683,
      "2fe9": 6684,
      "2fe7": 6685,
      "2fe4": 6686,
      "2fe2": 6687,
      "2f7f": 6688,
      "2f7a": 6689,
      "2f7d": 6690,
      "2f73": 6691,
      "2f75": 6692,
      "2f7b": 6693,
      "2f78": 6694,
      "2f76": 6695,
      "2f7c": 6696,
      "2f71": 6697,
      "2f70": 6698,
      "2f79": 6699,
      "2f7e": 6700,
      "2f74": 6701,
      "2f72": 6702,
      "2f4f": 6703,
      "2f4a": 6704,
      "2f4d": 6705,
      "2f43": 6706,
      "2f45": 6707,
      "2f4b": 6708,
      "2f48": 6709,
      "2f46": 6710,
      "2f4c": 6711,
      "2f41": 6712,
      "2f40": 6713,
      "2f49": 6714,
      "2f4e": 6715,
      "2f47": 6716,
      "2f42": 6717,
      "2f2f": 6718,
      "2f2a": 6719,
      "2f2d": 6720,
      "2f23": 6721,
      "2f25": 6722,
      "2f2b": 6723,
      "2f28": 6724,
      "2f26": 6725,
      "2f2c": 6726,
      "2f21": 6727,
      "2f20": 6728,
      "2f29": 6729,
      "2f2e": 6730,
      "2f27": 6731,
      "2f24": 6732,
      "2adf": 6733,
      "2ada": 6734,
      "2ad3": 6735,
      "2ad5": 6736,
      "2adb": 6737,
      "2ad8": 6738,
      "2ad6": 6739,
      "2adc": 6740,
      "2ad1": 6741,
      "2ad0": 6742,
      "2ad9": 6743,
      "2ade": 6744,
      "2ad7": 6745,
      "2ad4": 6746,
      "2ad2": 6747,
      "2a3f": 6748,
      "2a3a": 6749,
      "2a3d": 6750,
      "2a35": 6751,
      "2a3b": 6752,
      "2a38": 6753,
      "2a36": 6754,
      "2a3c": 6755,
      "2a31": 6756,
      "2a30": 6757,
      "2a39": 6758,
      "2a3e": 6759,
      "2a37": 6760,
      "2a34": 6761,
      "2a32": 6762,
      "2a5f": 6763,
      "2a5a": 6764,
      "2a5d": 6765,
      "2a53": 6766,
      "2a5b": 6767,
      "2a58": 6768,
      "2a56": 6769,
      "2a5c": 6770,
      "2a51": 6771,
      "2a50": 6772,
      "2a59": 6773,
      "2a5e": 6774,
      "2a57": 6775,
      "2a54": 6776,
      "2a52": 6777,
      "2abf": 6778,
      "2aba": 6779,
      "2abd": 6780,
      "2ab3": 6781,
      "2ab5": 6782,
      "2ab8": 6783,
      "2ab6": 6784,
      "2abc": 6785,
      "2ab1": 6786,
      "2ab0": 6787,
      "2ab9": 6788,
      "2abe": 6789,
      "2ab7": 6790,
      "2ab4": 6791,
      "2ab2": 6792,
      "2a8f": 6793,
      "2a8a": 6794,
      "2a8d": 6795,
      "2a83": 6796,
      "2a85": 6797,
      "2a8b": 6798,
      "2a86": 6799,
      "2a8c": 6800,
      "2a81": 6801,
      "2a80": 6802,
      "2a89": 6803,
      "2a8e": 6804,
      "2a87": 6805,
      "2a84": 6806,
      "2a82": 6807,
      "2a6f": 6808,
      "2a6a": 6809,
      "2a6d": 6810,
      "2a63": 6811,
      "2a65": 6812,
      "2a6b": 6813,
      "2a68": 6814,
      "2a6c": 6815,
      "2a61": 6816,
      "2a60": 6817,
      "2a69": 6818,
      "2a6e": 6819,
      "2a67": 6820,
      "2a64": 6821,
      "2a62": 6822,
      "2acf": 6823,
      "2aca": 6824,
      "2acd": 6825,
      "2ac3": 6826,
      "2ac5": 6827,
      "2acb": 6828,
      "2ac8": 6829,
      "2ac6": 6830,
      "2ac1": 6831,
      "2ac0": 6832,
      "2ac9": 6833,
      "2ace": 6834,
      "2ac7": 6835,
      "2ac4": 6836,
      "2ac2": 6837,
      "2a1f": 6838,
      "2a1a": 6839,
      "2a1d": 6840,
      "2a13": 6841,
      "2a15": 6842,
      "2a1b": 6843,
      "2a18": 6844,
      "2a16": 6845,
      "2a1c": 6846,
      "2a10": 6847,
      "2a19": 6848,
      "2a1e": 6849,
      "2a17": 6850,
      "2a14": 6851,
      "2a12": 6852,
      "2a0f": 6853,
      "2a0a": 6854,
      "2a0d": 6855,
      "2a03": 6856,
      "2a05": 6857,
      "2a0b": 6858,
      "2a08": 6859,
      "2a06": 6860,
      "2a0c": 6861,
      "2a01": 6862,
      "2a09": 6863,
      "2a0e": 6864,
      "2a07": 6865,
      "2a04": 6866,
      "2a02": 6867,
      "2a9f": 6868,
      "2a9a": 6869,
      "2a9d": 6870,
      "2a93": 6871,
      "2a95": 6872,
      "2a9b": 6873,
      "2a98": 6874,
      "2a96": 6875,
      "2a9c": 6876,
      "2a91": 6877,
      "2a90": 6878,
      "2a9e": 6879,
      "2a97": 6880,
      "2a94": 6881,
      "2a92": 6882,
      "2aef": 6883,
      "2aea": 6884,
      "2aed": 6885,
      "2ae3": 6886,
      "2ae5": 6887,
      "2aeb": 6888,
      "2ae8": 6889,
      "2ae6": 6890,
      "2aec": 6891,
      "2ae1": 6892,
      "2ae0": 6893,
      "2ae9": 6894,
      "2ae7": 6895,
      "2ae4": 6896,
      "2ae2": 6897,
      "2a7f": 6898,
      "2a7a": 6899,
      "2a7d": 6900,
      "2a73": 6901,
      "2a75": 6902,
      "2a7b": 6903,
      "2a78": 6904,
      "2a76": 6905,
      "2a7c": 6906,
      "2a71": 6907,
      "2a70": 6908,
      "2a79": 6909,
      "2a7e": 6910,
      "2a74": 6911,
      "2a72": 6912,
      "2a4f": 6913,
      "2a4a": 6914,
      "2a4d": 6915,
      "2a43": 6916,
      "2a45": 6917,
      "2a4b": 6918,
      "2a48": 6919,
      "2a46": 6920,
      "2a4c": 6921,
      "2a41": 6922,
      "2a40": 6923,
      "2a49": 6924,
      "2a4e": 6925,
      "2a47": 6926,
      "2a42": 6927,
      "2a2f": 6928,
      "2a2a": 6929,
      "2a2d": 6930,
      "2a23": 6931,
      "2a25": 6932,
      "2a2b": 6933,
      "2a28": 6934,
      "2a26": 6935,
      "2a2c": 6936,
      "2a21": 6937,
      "2a20": 6938,
      "2a29": 6939,
      "2a2e": 6940,
      "2a27": 6941,
      "2a24": 6942,
      "2d3f": 6943,
      "2d3a": 6944,
      "2d3d": 6945,
      "2d35": 6946,
      "2d3b": 6947,
      "2d38": 6948,
      "2d36": 6949,
      "2d3c": 6950,
      "2d31": 6951,
      "2d30": 6952,
      "2d39": 6953,
      "2d3e": 6954,
      "2d37": 6955,
      "2d34": 6956,
      "2d32": 6957,
      "2d5f": 6958,
      "2d5a": 6959,
      "2d5d": 6960,
      "2d53": 6961,
      "2d5b": 6962,
      "2d58": 6963,
      "2d56": 6964,
      "2d5c": 6965,
      "2d51": 6966,
      "2d50": 6967,
      "2d59": 6968,
      "2d5e": 6969,
      "2d57": 6970,
      "2d54": 6971,
      "2d52": 6972,
      "2dbf": 6973,
      "2dba": 6974,
      "2dbd": 6975,
      "2db3": 6976,
      "2db5": 6977,
      "2db8": 6978,
      "2db6": 6979,
      "2dbc": 6980,
      "2db1": 6981,
      "2db0": 6982,
      "2db9": 6983,
      "2dbe": 6984,
      "2db7": 6985,
      "2db4": 6986,
      "2db2": 6987,
      "2d8f": 6988,
      "2d8a": 6989,
      "2d8d": 6990,
      "2d83": 6991,
      "2d85": 6992,
      "2d8b": 6993,
      "2d86": 6994,
      "2d8c": 6995,
      "2d81": 6996,
      "2d80": 6997,
      "2d89": 6998,
      "2d8e": 6999,
      "2d87": 7000,
      "2d84": 7001,
      "2d82": 7002,
      "2d6f": 7003,
      "2d6a": 7004,
      "2d6d": 7005,
      "2d63": 7006,
      "2d65": 7007,
      "2d6b": 7008,
      "2d68": 7009,
      "2d6c": 7010,
      "2d61": 7011,
      "2d60": 7012,
      "2d69": 7013,
      "2d6e": 7014,
      "2d67": 7015,
      "2d64": 7016,
      "2d62": 7017,
      "2dcf": 7018,
      "2dca": 7019,
      "2dcd": 7020,
      "2dc3": 7021,
      "2dc5": 7022,
      "2dcb": 7023,
      "2dc8": 7024,
      "2dc6": 7025,
      "2dc1": 7026,
      "2dc0": 7027,
      "2dc9": 7028,
      "2dce": 7029,
      "2dc7": 7030,
      "2dc4": 7031,
      "2dc2": 7032,
      "2d1f": 7033,
      "2d1a": 7034,
      "2d1d": 7035,
      "2d13": 7036,
      "2d15": 7037,
      "2d1b": 7038,
      "2d18": 7039,
      "2d16": 7040,
      "2d1c": 7041,
      "2d10": 7042,
      "2d19": 7043,
      "2d1e": 7044,
      "2d17": 7045,
      "2d14": 7046,
      "2d12": 7047,
      "2d0f": 7048,
      "2d0a": 7049,
      "2d0d": 7050,
      "2d03": 7051,
      "2d05": 7052,
      "2d0b": 7053,
      "2d08": 7054,
      "2d06": 7055,
      "2d0c": 7056,
      "2d01": 7057,
      "2d09": 7058,
      "2d0e": 7059,
      "2d07": 7060,
      "2d04": 7061,
      "2d02": 7062,
      "2d9f": 7063,
      "2d9a": 7064,
      "2d9d": 7065,
      "2d93": 7066,
      "2d95": 7067,
      "2d9b": 7068,
      "2d98": 7069,
      "2d96": 7070,
      "2d9c": 7071,
      "2d91": 7072,
      "2d90": 7073,
      "2d9e": 7074,
      "2d97": 7075,
      "2d94": 7076,
      "2d92": 7077,
      "2def": 7078,
      "2dea": 7079,
      "2ded": 7080,
      "2de3": 7081,
      "2de5": 7082,
      "2deb": 7083,
      "2de8": 7084,
      "2de6": 7085,
      "2dec": 7086,
      "2de1": 7087,
      "2de0": 7088,
      "2de9": 7089,
      "2de7": 7090,
      "2de4": 7091,
      "2de2": 7092,
      "2d7f": 7093,
      "2d7a": 7094,
      "2d7d": 7095,
      "2d73": 7096,
      "2d75": 7097,
      "2d7b": 7098,
      "2d78": 7099,
      "2d76": 7100,
      "2d7c": 7101,
      "2d71": 7102,
      "2d70": 7103,
      "2d79": 7104,
      "2d7e": 7105,
      "2d74": 7106,
      "2d72": 7107,
      "2d4f": 7108,
      "2d4a": 7109,
      "2d4d": 7110,
      "2d43": 7111,
      "2d45": 7112,
      "2d4b": 7113,
      "2d48": 7114,
      "2d46": 7115,
      "2d4c": 7116,
      "2d41": 7117,
      "2d40": 7118,
      "2d49": 7119,
      "2d4e": 7120,
      "2d47": 7121,
      "2d42": 7122,
      "2d2f": 7123,
      "2d2a": 7124,
      "2d2d": 7125,
      "2d23": 7126,
      "2d25": 7127,
      "2d2b": 7128,
      "2d28": 7129,
      "2d26": 7130,
      "2d2c": 7131,
      "2d21": 7132,
      "2d20": 7133,
      "2d29": 7134,
      "2d2e": 7135,
      "2d27": 7136,
      "2d24": 7137,
      "235f": 7138,
      "235a": 7139,
      "235d": 7140,
      "2353": 7141,
      "235b": 7142,
      "2358": 7143,
      "2356": 7144,
      "235c": 7145,
      "2351": 7146,
      "2350": 7147,
      "2359": 7148,
      "235e": 7149,
      "2357": 7150,
      "2354": 7151,
      "2352": 7152,
      "23bf": 7153,
      "23ba": 7154,
      "23bd": 7155,
      "23b3": 7156,
      "23b5": 7157,
      "23b8": 7158,
      "23b6": 7159,
      "23bc": 7160,
      "23b1": 7161,
      "23b0": 7162,
      "23b9": 7163,
      "23be": 7164,
      "23b7": 7165,
      "23b4": 7166,
      "23b2": 7167,
      "238f": 7168,
      "238a": 7169,
      "238d": 7170,
      "2383": 7171,
      "2385": 7172,
      "238b": 7173,
      "2386": 7174,
      "238c": 7175,
      "2381": 7176,
      "2380": 7177,
      "2389": 7178,
      "238e": 7179,
      "2387": 7180,
      "2384": 7181,
      "2382": 7182,
      "236f": 7183,
      "236a": 7184,
      "236d": 7185,
      "2363": 7186,
      "2365": 7187,
      "236b": 7188,
      "2368": 7189,
      "236c": 7190,
      "2361": 7191,
      "2360": 7192,
      "2369": 7193,
      "236e": 7194,
      "2367": 7195,
      "2364": 7196,
      "2362": 7197,
      "23cf": 7198,
      "23ca": 7199,
      "23cd": 7200,
      "23c3": 7201,
      "23c5": 7202,
      "23cb": 7203,
      "23c8": 7204,
      "23c6": 7205,
      "23c1": 7206,
      "23c0": 7207,
      "23c9": 7208,
      "23ce": 7209,
      "23c7": 7210,
      "23c4": 7211,
      "23c2": 7212,
      "231f": 7213,
      "231a": 7214,
      "231d": 7215,
      "2313": 7216,
      "2315": 7217,
      "231b": 7218,
      "2318": 7219,
      "2316": 7220,
      "231c": 7221,
      "2310": 7222,
      "2319": 7223,
      "231e": 7224,
      "2317": 7225,
      "2314": 7226,
      "2312": 7227,
      "230f": 7228,
      "230a": 7229,
      "230d": 7230,
      "2303": 7231,
      "2305": 7232,
      "230b": 7233,
      "2308": 7234,
      "2306": 7235,
      "230c": 7236,
      "2301": 7237,
      "2309": 7238,
      "230e": 7239,
      "2307": 7240,
      "2304": 7241,
      "2302": 7242,
      "239f": 7243,
      "239a": 7244,
      "239d": 7245,
      "2393": 7246,
      "2395": 7247,
      "239b": 7248,
      "2398": 7249,
      "2396": 7250,
      "239c": 7251,
      "2391": 7252,
      "2390": 7253,
      "239e": 7254,
      "2397": 7255,
      "2394": 7256,
      "2392": 7257,
      "23ef": 7258,
      "23ea": 7259,
      "23ed": 7260,
      "23e3": 7261,
      "23e5": 7262,
      "23eb": 7263,
      "23e8": 7264,
      "23e6": 7265,
      "23ec": 7266,
      "23e1": 7267,
      "23e0": 7268,
      "23e9": 7269,
      "23e7": 7270,
      "23e4": 7271,
      "23e2": 7272,
      "237f": 7273,
      "237a": 7274,
      "237d": 7275,
      "2373": 7276,
      "2375": 7277,
      "237b": 7278,
      "2378": 7279,
      "2376": 7280,
      "237c": 7281,
      "2371": 7282,
      "2370": 7283,
      "2379": 7284,
      "237e": 7285,
      "2374": 7286,
      "2372": 7287,
      "234f": 7288,
      "234a": 7289,
      "234d": 7290,
      "2343": 7291,
      "2345": 7292,
      "234b": 7293,
      "2348": 7294,
      "2346": 7295,
      "234c": 7296,
      "2341": 7297,
      "2340": 7298,
      "2349": 7299,
      "234e": 7300,
      "2347": 7301,
      "2342": 7302,
      "232f": 7303,
      "232a": 7304,
      "232d": 7305,
      "2323": 7306,
      "2325": 7307,
      "232b": 7308,
      "2328": 7309,
      "2326": 7310,
      "232c": 7311,
      "2321": 7312,
      "2320": 7313,
      "2329": 7314,
      "232e": 7315,
      "2327": 7316,
      "2324": 7317,
      "25bf": 7318,
      "25ba": 7319,
      "25bd": 7320,
      "25b3": 7321,
      "25b5": 7322,
      "25b8": 7323,
      "25b6": 7324,
      "25bc": 7325,
      "25b1": 7326,
      "25b0": 7327,
      "25b9": 7328,
      "25be": 7329,
      "25b7": 7330,
      "25b4": 7331,
      "25b2": 7332,
      "258f": 7333,
      "258a": 7334,
      "258d": 7335,
      "2583": 7336,
      "2585": 7337,
      "258b": 7338,
      "2586": 7339,
      "258c": 7340,
      "2581": 7341,
      "2580": 7342,
      "2589": 7343,
      "258e": 7344,
      "2587": 7345,
      "2584": 7346,
      "2582": 7347,
      "256f": 7348,
      "256a": 7349,
      "256d": 7350,
      "2563": 7351,
      "2565": 7352,
      "256b": 7353,
      "2568": 7354,
      "256c": 7355,
      "2561": 7356,
      "2560": 7357,
      "2569": 7358,
      "256e": 7359,
      "2567": 7360,
      "2564": 7361,
      "2562": 7362,
      "25cf": 7363,
      "25ca": 7364,
      "25cd": 7365,
      "25c3": 7366,
      "25c5": 7367,
      "25cb": 7368,
      "25c8": 7369,
      "25c6": 7370,
      "25c1": 7371,
      "25c0": 7372,
      "25c9": 7373,
      "25ce": 7374,
      "25c7": 7375,
      "25c4": 7376,
      "25c2": 7377,
      "251f": 7378,
      "251a": 7379,
      "251d": 7380,
      "2513": 7381,
      "2515": 7382,
      "251b": 7383,
      "2518": 7384,
      "2516": 7385,
      "251c": 7386,
      "2510": 7387,
      "2519": 7388,
      "251e": 7389,
      "2517": 7390,
      "2514": 7391,
      "2512": 7392,
      "250f": 7393,
      "250a": 7394,
      "250d": 7395,
      "2503": 7396,
      "2505": 7397,
      "250b": 7398,
      "2508": 7399,
      "2506": 7400,
      "250c": 7401,
      "2501": 7402,
      "2509": 7403,
      "250e": 7404,
      "2507": 7405,
      "2504": 7406,
      "2502": 7407,
      "259f": 7408,
      "259a": 7409,
      "259d": 7410,
      "2593": 7411,
      "2595": 7412,
      "259b": 7413,
      "2598": 7414,
      "2596": 7415,
      "259c": 7416,
      "2591": 7417,
      "2590": 7418,
      "259e": 7419,
      "2597": 7420,
      "2594": 7421,
      "2592": 7422,
      "25ef": 7423,
      "25ea": 7424,
      "25ed": 7425,
      "25e3": 7426,
      "25e5": 7427,
      "25eb": 7428,
      "25e8": 7429,
      "25e6": 7430,
      "25ec": 7431,
      "25e1": 7432,
      "25e0": 7433,
      "25e9": 7434,
      "25e7": 7435,
      "25e4": 7436,
      "25e2": 7437,
      "257f": 7438,
      "257a": 7439,
      "257d": 7440,
      "2573": 7441,
      "2575": 7442,
      "257b": 7443,
      "2578": 7444,
      "2576": 7445,
      "257c": 7446,
      "2571": 7447,
      "2570": 7448,
      "2579": 7449,
      "257e": 7450,
      "2574": 7451,
      "2572": 7452,
      "254f": 7453,
      "254a": 7454,
      "254d": 7455,
      "2543": 7456,
      "2545": 7457,
      "254b": 7458,
      "2548": 7459,
      "2546": 7460,
      "254c": 7461,
      "2541": 7462,
      "2540": 7463,
      "2549": 7464,
      "254e": 7465,
      "2547": 7466,
      "2542": 7467,
      "252f": 7468,
      "252a": 7469,
      "252d": 7470,
      "2523": 7471,
      "2525": 7472,
      "252b": 7473,
      "2528": 7474,
      "2526": 7475,
      "252c": 7476,
      "2521": 7477,
      "2520": 7478,
      "2529": 7479,
      "252e": 7480,
      "2527": 7481,
      "2524": 7482,
      "2b8f": 7483,
      "2b8a": 7484,
      "2b8d": 7485,
      "2b83": 7486,
      "2b85": 7487,
      "2b8b": 7488,
      "2b86": 7489,
      "2b8c": 7490,
      "2b81": 7491,
      "2b80": 7492,
      "2b89": 7493,
      "2b8e": 7494,
      "2b87": 7495,
      "2b84": 7496,
      "2b82": 7497,
      "2b6f": 7498,
      "2b6a": 7499,
      "2b6d": 7500,
      "2b63": 7501,
      "2b65": 7502,
      "2b6b": 7503,
      "2b68": 7504,
      "2b6c": 7505,
      "2b61": 7506,
      "2b60": 7507,
      "2b69": 7508,
      "2b6e": 7509,
      "2b67": 7510,
      "2b64": 7511,
      "2b62": 7512,
      "2bcf": 7513,
      "2bca": 7514,
      "2bcd": 7515,
      "2bc3": 7516,
      "2bc5": 7517,
      "2bcb": 7518,
      "2bc8": 7519,
      "2bc6": 7520,
      "2bc1": 7521,
      "2bc0": 7522,
      "2bc9": 7523,
      "2bce": 7524,
      "2bc7": 7525,
      "2bc4": 7526,
      "2bc2": 7527,
      "2b1f": 7528,
      "2b1a": 7529,
      "2b1d": 7530,
      "2b13": 7531,
      "2b15": 7532,
      "2b1b": 7533,
      "2b18": 7534,
      "2b16": 7535,
      "2b1c": 7536,
      "2b10": 7537,
      "2b19": 7538,
      "2b1e": 7539,
      "2b17": 7540,
      "2b14": 7541,
      "2b12": 7542,
      "2b0f": 7543,
      "2b0a": 7544,
      "2b0d": 7545,
      "2b03": 7546,
      "2b05": 7547,
      "2b0b": 7548,
      "2b08": 7549,
      "2b06": 7550,
      "2b0c": 7551,
      "2b01": 7552,
      "2b09": 7553,
      "2b0e": 7554,
      "2b07": 7555,
      "2b04": 7556,
      "2b02": 7557,
      "2b9f": 7558,
      "2b9a": 7559,
      "2b9d": 7560,
      "2b93": 7561,
      "2b95": 7562,
      "2b9b": 7563,
      "2b98": 7564,
      "2b96": 7565,
      "2b9c": 7566,
      "2b91": 7567,
      "2b90": 7568,
      "2b9e": 7569,
      "2b97": 7570,
      "2b94": 7571,
      "2b92": 7572,
      "2bef": 7573,
      "2bea": 7574,
      "2bed": 7575,
      "2be3": 7576,
      "2be5": 7577,
      "2beb": 7578,
      "2be8": 7579,
      "2be6": 7580,
      "2bec": 7581,
      "2be1": 7582,
      "2be0": 7583,
      "2be9": 7584,
      "2be7": 7585,
      "2be4": 7586,
      "2be2": 7587,
      "2b7f": 7588,
      "2b7a": 7589,
      "2b7d": 7590,
      "2b73": 7591,
      "2b75": 7592,
      "2b7b": 7593,
      "2b78": 7594,
      "2b76": 7595,
      "2b7c": 7596,
      "2b71": 7597,
      "2b70": 7598,
      "2b79": 7599,
      "2b7e": 7600,
      "2b74": 7601,
      "2b72": 7602,
      "2b4f": 7603,
      "2b4a": 7604,
      "2b4d": 7605,
      "2b43": 7606,
      "2b45": 7607,
      "2b4b": 7608,
      "2b48": 7609,
      "2b46": 7610,
      "2b4c": 7611,
      "2b41": 7612,
      "2b40": 7613,
      "2b49": 7614,
      "2b4e": 7615,
      "2b47": 7616,
      "2b42": 7617,
      "2b2f": 7618,
      "2b2a": 7619,
      "2b2d": 7620,
      "2b23": 7621,
      "2b25": 7622,
      "2b2b": 7623,
      "2b28": 7624,
      "2b26": 7625,
      "2b2c": 7626,
      "2b21": 7627,
      "2b20": 7628,
      "2b29": 7629,
      "2b2e": 7630,
      "2b27": 7631,
      "2b24": 7632,
      "286f": 7633,
      "286a": 7634,
      "286d": 7635,
      "2863": 7636,
      "2865": 7637,
      "286b": 7638,
      "2868": 7639,
      "286c": 7640,
      "2861": 7641,
      "2860": 7642,
      "2869": 7643,
      "286e": 7644,
      "2867": 7645,
      "2864": 7646,
      "2862": 7647,
      "28cf": 7648,
      "28ca": 7649,
      "28cd": 7650,
      "28c3": 7651,
      "28c5": 7652,
      "28cb": 7653,
      "28c8": 7654,
      "28c6": 7655,
      "28c1": 7656,
      "28c0": 7657,
      "28c9": 7658,
      "28ce": 7659,
      "28c7": 7660,
      "28c4": 7661,
      "28c2": 7662,
      "281f": 7663,
      "281a": 7664,
      "281d": 7665,
      "2813": 7666,
      "2815": 7667,
      "281b": 7668,
      "2818": 7669,
      "2816": 7670,
      "281c": 7671,
      "2810": 7672,
      "2819": 7673,
      "281e": 7674,
      "2817": 7675,
      "2814": 7676,
      "2812": 7677,
      "280f": 7678,
      "280a": 7679,
      "280d": 7680,
      "2803": 7681,
      "2805": 7682,
      "280b": 7683,
      "2808": 7684,
      "2806": 7685,
      "280c": 7686,
      "2801": 7687,
      "2809": 7688,
      "280e": 7689,
      "2807": 7690,
      "2804": 7691,
      "2802": 7692,
      "289f": 7693,
      "289a": 7694,
      "289d": 7695,
      "2893": 7696,
      "2895": 7697,
      "289b": 7698,
      "2898": 7699,
      "2896": 7700,
      "289c": 7701,
      "2891": 7702,
      "2890": 7703,
      "289e": 7704,
      "2897": 7705,
      "2894": 7706,
      "2892": 7707,
      "28ef": 7708,
      "28ea": 7709,
      "28ed": 7710,
      "28e3": 7711,
      "28e5": 7712,
      "28eb": 7713,
      "28e8": 7714,
      "28e6": 7715,
      "28ec": 7716,
      "28e1": 7717,
      "28e0": 7718,
      "28e9": 7719,
      "28e7": 7720,
      "28e4": 7721,
      "28e2": 7722,
      "287f": 7723,
      "287a": 7724,
      "287d": 7725,
      "2873": 7726,
      "2875": 7727,
      "287b": 7728,
      "2878": 7729,
      "2876": 7730,
      "287c": 7731,
      "2871": 7732,
      "2870": 7733,
      "2879": 7734,
      "287e": 7735,
      "2874": 7736,
      "2872": 7737,
      "284f": 7738,
      "284a": 7739,
      "284d": 7740,
      "2843": 7741,
      "2845": 7742,
      "284b": 7743,
      "2848": 7744,
      "2846": 7745,
      "284c": 7746,
      "2841": 7747,
      "2840": 7748,
      "2849": 7749,
      "284e": 7750,
      "2847": 7751,
      "2842": 7752,
      "282f": 7753,
      "282a": 7754,
      "282d": 7755,
      "2823": 7756,
      "2825": 7757,
      "282b": 7758,
      "2828": 7759,
      "2826": 7760,
      "282c": 7761,
      "2821": 7762,
      "2820": 7763,
      "2829": 7764,
      "282e": 7765,
      "2827": 7766,
      "2824": 7767,
      "26cf": 7768,
      "26ca": 7769,
      "26cd": 7770,
      "26c3": 7771,
      "26c5": 7772,
      "26cb": 7773,
      "26c8": 7774,
      "26c6": 7775,
      "26c1": 7776,
      "26c0": 7777,
      "26c9": 7778,
      "26ce": 7779,
      "26c7": 7780,
      "26c4": 7781,
      "26c2": 7782,
      "261f": 7783,
      "261a": 7784,
      "261d": 7785,
      "2613": 7786,
      "2615": 7787,
      "261b": 7788,
      "2618": 7789,
      "2616": 7790,
      "261c": 7791,
      "2610": 7792,
      "2619": 7793,
      "261e": 7794,
      "2617": 7795,
      "2614": 7796,
      "2612": 7797,
      "260f": 7798,
      "260a": 7799,
      "260d": 7800,
      "2603": 7801,
      "2605": 7802,
      "260b": 7803,
      "2608": 7804,
      "2606": 7805,
      "260c": 7806,
      "2601": 7807,
      "2609": 7808,
      "260e": 7809,
      "2607": 7810,
      "2604": 7811,
      "2602": 7812,
      "269f": 7813,
      "269a": 7814,
      "269d": 7815,
      "2693": 7816,
      "2695": 7817,
      "269b": 7818,
      "2698": 7819,
      "2696": 7820,
      "269c": 7821,
      "2691": 7822,
      "2690": 7823,
      "269e": 7824,
      "2697": 7825,
      "2694": 7826,
      "2692": 7827,
      "26ef": 7828,
      "26ea": 7829,
      "26ed": 7830,
      "26e3": 7831,
      "26e5": 7832,
      "26eb": 7833,
      "26e8": 7834,
      "26e6": 7835,
      "26ec": 7836,
      "26e1": 7837,
      "26e0": 7838,
      "26e9": 7839,
      "26e7": 7840,
      "26e4": 7841,
      "26e2": 7842,
      "267f": 7843,
      "267a": 7844,
      "267d": 7845,
      "2673": 7846,
      "2675": 7847,
      "267b": 7848,
      "2678": 7849,
      "2676": 7850,
      "267c": 7851,
      "2671": 7852,
      "2670": 7853,
      "2679": 7854,
      "267e": 7855,
      "2674": 7856,
      "2672": 7857,
      "264f": 7858,
      "264a": 7859,
      "264d": 7860,
      "2643": 7861,
      "2645": 7862,
      "264b": 7863,
      "2648": 7864,
      "2646": 7865,
      "264c": 7866,
      "2641": 7867,
      "2640": 7868,
      "2649": 7869,
      "264e": 7870,
      "2647": 7871,
      "2642": 7872,
      "262f": 7873,
      "262a": 7874,
      "262d": 7875,
      "2623": 7876,
      "2625": 7877,
      "262b": 7878,
      "2628": 7879,
      "2626": 7880,
      "262c": 7881,
      "2621": 7882,
      "2620": 7883,
      "2629": 7884,
      "262e": 7885,
      "2627": 7886,
      "2624": 7887,
      "2c1f": 7888,
      "2c1a": 7889,
      "2c1d": 7890,
      "2c13": 7891,
      "2c15": 7892,
      "2c1b": 7893,
      "2c18": 7894,
      "2c16": 7895,
      "2c1c": 7896,
      "2c10": 7897,
      "2c19": 7898,
      "2c1e": 7899,
      "2c17": 7900,
      "2c14": 7901,
      "2c12": 7902,
      "2c0f": 7903,
      "2c0a": 7904,
      "2c0d": 7905,
      "2c03": 7906,
      "2c05": 7907,
      "2c0b": 7908,
      "2c08": 7909,
      "2c06": 7910,
      "2c0c": 7911,
      "2c01": 7912,
      "2c09": 7913,
      "2c0e": 7914,
      "2c07": 7915,
      "2c04": 7916,
      "2c02": 7917,
      "2c9f": 7918,
      "2c9a": 7919,
      "2c9d": 7920,
      "2c93": 7921,
      "2c95": 7922,
      "2c9b": 7923,
      "2c98": 7924,
      "2c96": 7925,
      "2c9c": 7926,
      "2c91": 7927,
      "2c90": 7928,
      "2c9e": 7929,
      "2c97": 7930,
      "2c94": 7931,
      "2c92": 7932,
      "2cef": 7933,
      "2cea": 7934,
      "2ced": 7935,
      "2ce3": 7936,
      "2ce5": 7937,
      "2ceb": 7938,
      "2ce8": 7939,
      "2ce6": 7940,
      "2cec": 7941,
      "2ce1": 7942,
      "2ce0": 7943,
      "2ce9": 7944,
      "2ce7": 7945,
      "2ce4": 7946,
      "2ce2": 7947,
      "2c7f": 7948,
      "2c7a": 7949,
      "2c7d": 7950,
      "2c73": 7951,
      "2c75": 7952,
      "2c7b": 7953,
      "2c78": 7954,
      "2c76": 7955,
      "2c7c": 7956,
      "2c71": 7957,
      "2c70": 7958,
      "2c79": 7959,
      "2c7e": 7960,
      "2c74": 7961,
      "2c72": 7962,
      "2c4f": 7963,
      "2c4a": 7964,
      "2c4d": 7965,
      "2c43": 7966,
      "2c45": 7967,
      "2c4b": 7968,
      "2c48": 7969,
      "2c46": 7970,
      "2c4c": 7971,
      "2c41": 7972,
      "2c40": 7973,
      "2c49": 7974,
      "2c4e": 7975,
      "2c47": 7976,
      "2c42": 7977,
      "2c2f": 7978,
      "2c2a": 7979,
      "2c2d": 7980,
      "2c23": 7981,
      "2c25": 7982,
      "2c2b": 7983,
      "2c28": 7984,
      "2c26": 7985,
      "2c2c": 7986,
      "2c21": 7987,
      "2c20": 7988,
      "2c29": 7989,
      "2c2e": 7990,
      "2c27": 7991,
      "2c24": 7992,
      "210f": 7993,
      "210a": 7994,
      "210d": 7995,
      "2103": 7996,
      "2105": 7997,
      "210b": 7998,
      "2108": 7999,
      "2106": 8000,
      "210c": 8001,
      "2101": 8002,
      "2109": 8003,
      "210e": 8004,
      "2107": 8005,
      "2104": 8006,
      "2102": 8007,
      "219f": 8008,
      "219a": 8009,
      "219d": 8010,
      "2193": 8011,
      "2195": 8012,
      "219b": 8013,
      "2198": 8014,
      "2196": 8015,
      "219c": 8016,
      "2191": 8017,
      "2190": 8018,
      "219e": 8019,
      "2197": 8020,
      "2194": 8021,
      "2192": 8022,
      "21ef": 8023,
      "21ea": 8024,
      "21ed": 8025,
      "21e3": 8026,
      "21e5": 8027,
      "21eb": 8028,
      "21e8": 8029,
      "21e6": 8030,
      "21ec": 8031,
      "21e1": 8032,
      "21e0": 8033,
      "21e9": 8034,
      "21e7": 8035,
      "21e4": 8036,
      "21e2": 8037,
      "217f": 8038,
      "217a": 8039,
      "217d": 8040,
      "2173": 8041,
      "2175": 8042,
      "217b": 8043,
      "2178": 8044,
      "2176": 8045,
      "217c": 8046,
      "2171": 8047,
      "2170": 8048,
      "2179": 8049,
      "217e": 8050,
      "2174": 8051,
      "2172": 8052,
      "214f": 8053,
      "214a": 8054,
      "214d": 8055,
      "2143": 8056,
      "2145": 8057,
      "214b": 8058,
      "2148": 8059,
      "2146": 8060,
      "214c": 8061,
      "2141": 8062,
      "2140": 8063,
      "2149": 8064,
      "214e": 8065,
      "2147": 8066,
      "2142": 8067,
      "212f": 8068,
      "212a": 8069,
      "212d": 8070,
      "2123": 8071,
      "2125": 8072,
      "212b": 8073,
      "2128": 8074,
      "2126": 8075,
      "212c": 8076,
      "2121": 8077,
      "2120": 8078,
      "2129": 8079,
      "212e": 8080,
      "2127": 8081,
      "2124": 8082,
      "209f": 8083,
      "209a": 8084,
      "209d": 8085,
      "2093": 8086,
      "2095": 8087,
      "209b": 8088,
      "2098": 8089,
      "2096": 8090,
      "209c": 8091,
      "2091": 8092,
      "2090": 8093,
      "209e": 8094,
      "2097": 8095,
      "2094": 8096,
      "2092": 8097,
      "20ef": 8098,
      "20ea": 8099,
      "20ed": 8100,
      "20e3": 8101,
      "20e5": 8102,
      "20eb": 8103,
      "20e8": 8104,
      "20e6": 8105,
      "20ec": 8106,
      "20e1": 8107,
      "20e0": 8108,
      "20e9": 8109,
      "20e7": 8110,
      "20e4": 8111,
      "20e2": 8112,
      "207f": 8113,
      "207a": 8114,
      "207d": 8115,
      "2073": 8116,
      "2075": 8117,
      "207b": 8118,
      "2078": 8119,
      "2076": 8120,
      "207c": 8121,
      "2071": 8122,
      "2070": 8123,
      "2079": 8124,
      "207e": 8125,
      "2074": 8126,
      "2072": 8127,
      "204f": 8128,
      "204a": 8129,
      "204d": 8130,
      "2043": 8131,
      "2045": 8132,
      "204b": 8133,
      "2048": 8134,
      "2046": 8135,
      "204c": 8136,
      "2041": 8137,
      "2040": 8138,
      "2049": 8139,
      "204e": 8140,
      "2047": 8141,
      "2042": 8142,
      "202f": 8143,
      "202a": 8144,
      "202d": 8145,
      "2023": 8146,
      "2025": 8147,
      "202b": 8148,
      "2028": 8149,
      "2026": 8150,
      "202c": 8151,
      "2021": 8152,
      "2020": 8153,
      "2029": 8154,
      "202e": 8155,
      "2027": 8156,
      "2024": 8157,
      "29ef": 8158,
      "29ea": 8159,
      "29ed": 8160,
      "29e3": 8161,
      "29e5": 8162,
      "29eb": 8163,
      "29e8": 8164,
      "29e6": 8165,
      "29ec": 8166,
      "29e1": 8167,
      "29e0": 8168,
      "29e9": 8169,
      "29e7": 8170,
      "29e4": 8171,
      "29e2": 8172,
      "297f": 8173,
      "297a": 8174,
      "297d": 8175,
      "2973": 8176,
      "2975": 8177,
      "297b": 8178,
      "2978": 8179,
      "2976": 8180,
      "297c": 8181,
      "2971": 8182,
      "2970": 8183,
      "2979": 8184,
      "297e": 8185,
      "2974": 8186,
      "2972": 8187,
      "294f": 8188,
      "294a": 8189,
      "294d": 8190,
      "2943": 8191,
      "2945": 8192,
      "294b": 8193,
      "2948": 8194,
      "2946": 8195,
      "294c": 8196,
      "2941": 8197,
      "2940": 8198,
      "2949": 8199,
      "294e": 8200,
      "2947": 8201,
      "2942": 8202,
      "292f": 8203,
      "292a": 8204,
      "292d": 8205,
      "2923": 8206,
      "2925": 8207,
      "292b": 8208,
      "2928": 8209,
      "2926": 8210,
      "292c": 8211,
      "2921": 8212,
      "2920": 8213,
      "2929": 8214,
      "292e": 8215,
      "2927": 8216,
      "2924": 8217,
      "2e7f": 8218,
      "2e7a": 8219,
      "2e7d": 8220,
      "2e73": 8221,
      "2e75": 8222,
      "2e7b": 8223,
      "2e78": 8224,
      "2e76": 8225,
      "2e7c": 8226,
      "2e71": 8227,
      "2e70": 8228,
      "2e79": 8229,
      "2e7e": 8230,
      "2e74": 8231,
      "2e72": 8232,
      "2e4f": 8233,
      "2e4a": 8234,
      "2e4d": 8235,
      "2e43": 8236,
      "2e45": 8237,
      "2e4b": 8238,
      "2e48": 8239,
      "2e46": 8240,
      "2e4c": 8241,
      "2e41": 8242,
      "2e40": 8243,
      "2e49": 8244,
      "2e4e": 8245,
      "2e47": 8246,
      "2e42": 8247,
      "2e2f": 8248,
      "2e2a": 8249,
      "2e2d": 8250,
      "2e23": 8251,
      "2e25": 8252,
      "2e2b": 8253,
      "2e28": 8254,
      "2e26": 8255,
      "2e2c": 8256,
      "2e21": 8257,
      "2e20": 8258,
      "2e29": 8259,
      "2e2e": 8260,
      "2e27": 8261,
      "2e24": 8262,
      "274f": 8263,
      "274a": 8264,
      "274d": 8265,
      "2743": 8266,
      "2745": 8267,
      "274b": 8268,
      "2748": 8269,
      "2746": 8270,
      "274c": 8271,
      "2741": 8272,
      "2740": 8273,
      "2749": 8274,
      "274e": 8275,
      "2747": 8276,
      "2742": 8277,
      "272f": 8278,
      "272a": 8279,
      "272d": 8280,
      "2723": 8281,
      "2725": 8282,
      "272b": 8283,
      "2728": 8284,
      "2726": 8285,
      "272c": 8286,
      "2721": 8287,
      "2720": 8288,
      "2729": 8289,
      "272e": 8290,
      "2727": 8291,
      "2724": 8292,
      "242f": 8293,
      "242a": 8294,
      "242d": 8295,
      "2423": 8296,
      "2425": 8297,
      "242b": 8298,
      "2428": 8299,
      "2426": 8300,
      "242c": 8301,
      "2421": 8302,
      "2420": 8303,
      "2429": 8304,
      "242e": 8305,
      "2427": 8306,
      "2424": 8307,
      "23df": 8308,
      "23da": 8309,
      "2b5f": 8310,
      "2b5a": 8311,
      "2b5d": 8312,
      "2b53": 8313,
      "268f": 8314,
      "268a": 8315,
      "268d": 8316,
      "2683": 8317,
      "2685": 8318,
      "268b": 8319,
      "21cf": 8320,
      "21ca": 8321,
      "21cd": 8322,
      "21c3": 8323,
      "21c5": 8324,
      "21cb": 8325,
      "21c8": 8326,
      "21c6": 8327,
      "290f": 8328,
      "290a": 8329,
      "290d": 8330,
      "2903": 8331,
      "2905": 8332,
      "290b": 8333,
      "2908": 8334,
      "2906": 8335,
      "290c": 8336,
      "2901": 8337,
      "27ef": 8338,
      "27ea": 8339,
      "27ed": 8340,
      "27e3": 8341,
      "27e5": 8342,
      "27eb": 8343,
      "27e8": 8344,
      "27e6": 8345,
      "27ec": 8346,
      "27e1": 8347,
      "27e0": 8348,
      "27e9": 8349,
      "285f": 8350,
      "285a": 8351,
      "285d": 8352,
      "2853": 8353,
      "28bf": 8354,
      "28ba": 8355,
      "28bd": 8356,
      "28b3": 8357,
      "265f": 8358,
      "265a": 8359,
      "265d": 8360,
      "2653": 8361,
      "26bf": 8362,
      "26ba": 8363,
      "26bd": 8364,
      "26b3": 8365,
      "20cf": 8366,
      "20ca": 8367,
      "20cd": 8368,
      "20c3": 8369,
      "20c5": 8370,
      "20cb": 8371,
      "20c8": 8372,
      "20c6": 8373,
      "201f": 8374,
      "201a": 8375,
      "201d": 8376,
      "2013": 8377,
      "2015": 8378,
      "201b": 8379,
      "2018": 8380,
      "2016": 8381,
      "29cf": 8382,
      "29ca": 8383,
      "29cd": 8384,
      "29c3": 8385,
      "29c5": 8386,
      "29cb": 8387,
      "29c8": 8388,
      "29c6": 8389,
      "291f": 8390,
      "291a": 8391,
      "291d": 8392,
      "2913": 8393,
      "2915": 8394,
      "291b": 8395,
      "2918": 8396,
      "2916": 8397,
      "3faa": 8398,
      "3fdd": 8399,
      "3f33": 8400,
      "3f55": 8401,
      "3fbb": 8402,
      "3f88": 8403,
      "3f66": 8404,
      "3fcc": 8405,
      "3f11": 8406,
      "3f00": 8407,
      "3f99": 8408,
      "3fee": 8409,
      "3f77": 8410,
      "3f44": 8411,
      "3f22": 8412,
      "3faf": 8413,
      "3fad": 8414,
      "3fa3": 8415,
      "3fa5": 8416,
      "3fab": 8417,
      "3fa8": 8418,
      "3fa6": 8419,
      "3fac": 8420,
      "3fa1": 8421,
      "3fa0": 8422,
      "3fa9": 8423,
      "3fae": 8424,
      "3fa7": 8425,
      "3fa4": 8426,
      "3fa2": 8427,
      "3fdf": 8428,
      "3fda": 8429,
      "3fd3": 8430,
      "3fd5": 8431,
      "3fdb": 8432,
      "3fd8": 8433,
      "3fd6": 8434,
      "3fdc": 8435,
      "3fd1": 8436,
      "3fd0": 8437,
      "3fd9": 8438,
      "3fde": 8439,
      "3fd7": 8440,
      "3fd4": 8441,
      "3fd2": 8442,
      "3f3f": 8443,
      "3f3a": 8444,
      "3f3d": 8445,
      "3f35": 8446,
      "3f3b": 8447,
      "3f38": 8448,
      "3f36": 8449,
      "3f3c": 8450,
      "3f31": 8451,
      "3f30": 8452,
      "3f39": 8453,
      "3f3e": 8454,
      "3f37": 8455,
      "3f34": 8456,
      "3f32": 8457,
      "3f5f": 8458,
      "3f5a": 8459,
      "3f5d": 8460,
      "3f53": 8461,
      "3f5b": 8462,
      "3f58": 8463,
      "3f56": 8464,
      "3f5c": 8465,
      "3f51": 8466,
      "3f50": 8467,
      "3f59": 8468,
      "3f5e": 8469,
      "3f57": 8470,
      "3f54": 8471,
      "3f52": 8472,
      "3fbf": 8473,
      "3fba": 8474,
      "3fbd": 8475,
      "3fb3": 8476,
      "3fb5": 8477,
      "3fb8": 8478,
      "3fb6": 8479,
      "3fbc": 8480,
      "3fb1": 8481,
      "3fb0": 8482,
      "3fb9": 8483,
      "3fbe": 8484,
      "3fb7": 8485,
      "3fb4": 8486,
      "3fb2": 8487,
      "3f8f": 8488,
      "3f8a": 8489,
      "3f8d": 8490,
      "3f83": 8491,
      "3f85": 8492,
      "3f8b": 8493,
      "3f86": 8494,
      "3f8c": 8495,
      "3f81": 8496,
      "3f80": 8497,
      "3f89": 8498,
      "3f8e": 8499,
      "3f87": 8500,
      "3f84": 8501,
      "3f82": 8502,
      "3f6f": 8503,
      "3f6a": 8504,
      "3f6d": 8505,
      "3f63": 8506,
      "3f65": 8507,
      "3f6b": 8508,
      "3f68": 8509,
      "3f6c": 8510,
      "3f61": 8511,
      "3f60": 8512,
      "3f69": 8513,
      "3f6e": 8514,
      "3f67": 8515,
      "3f64": 8516,
      "3f62": 8517,
      "3fcf": 8518,
      "3fca": 8519,
      "3fcd": 8520,
      "3fc3": 8521,
      "3fc5": 8522,
      "3fcb": 8523,
      "3fc8": 8524,
      "3fc6": 8525,
      "3fc1": 8526,
      "3fc0": 8527,
      "3fc9": 8528,
      "3fce": 8529,
      "3fc7": 8530,
      "3fc4": 8531,
      "3fc2": 8532,
      "3f1f": 8533,
      "3f1a": 8534,
      "3f1d": 8535,
      "3f13": 8536,
      "3f15": 8537,
      "3f1b": 8538,
      "3f18": 8539,
      "3f16": 8540,
      "3f1c": 8541,
      "3f10": 8542,
      "3f19": 8543,
      "3f1e": 8544,
      "3f17": 8545,
      "3f14": 8546,
      "3f12": 8547,
      "3f0f": 8548,
      "3f0a": 8549,
      "3f0d": 8550,
      "3f03": 8551,
      "3f05": 8552,
      "3f0b": 8553,
      "3f08": 8554,
      "3f06": 8555,
      "3f0c": 8556,
      "3f01": 8557,
      "3f09": 8558,
      "3f0e": 8559,
      "3f07": 8560,
      "3f04": 8561,
      "3f02": 8562,
      "3f9f": 8563,
      "3f9a": 8564,
      "3f9d": 8565,
      "3f93": 8566,
      "3f95": 8567,
      "3f9b": 8568,
      "3f98": 8569,
      "3f96": 8570,
      "3f9c": 8571,
      "3f91": 8572,
      "3f90": 8573,
      "3f9e": 8574,
      "3f97": 8575,
      "3f94": 8576,
      "3f92": 8577,
      "3fef": 8578,
      "3fea": 8579,
      "3fed": 8580,
      "3fe3": 8581,
      "3fe5": 8582,
      "3feb": 8583,
      "3fe8": 8584,
      "3fe6": 8585,
      "3fec": 8586,
      "3fe1": 8587,
      "3fe0": 8588,
      "3fe9": 8589,
      "3fe7": 8590,
      "3fe4": 8591,
      "3fe2": 8592,
      "3f7f": 8593,
      "3f7a": 8594,
      "3f7d": 8595,
      "3f73": 8596,
      "3f75": 8597,
      "3f7b": 8598,
      "3f78": 8599,
      "3f76": 8600,
      "3f7c": 8601,
      "3f71": 8602,
      "3f70": 8603,
      "3f79": 8604,
      "3f7e": 8605,
      "3f74": 8606,
      "3f72": 8607,
      "3f4f": 8608,
      "3f4a": 8609,
      "3f4d": 8610,
      "3f43": 8611,
      "3f45": 8612,
      "3f4b": 8613,
      "3f48": 8614,
      "3f46": 8615,
      "3f4c": 8616,
      "3f41": 8617,
      "3f40": 8618,
      "3f49": 8619,
      "3f4e": 8620,
      "3f47": 8621,
      "3f42": 8622,
      "3f2f": 8623,
      "3f2a": 8624,
      "3f2d": 8625,
      "3f23": 8626,
      "3f25": 8627,
      "3f2b": 8628,
      "3f28": 8629,
      "3f26": 8630,
      "3f2c": 8631,
      "3f21": 8632,
      "3f20": 8633,
      "3f29": 8634,
      "3f2e": 8635,
      "3f27": 8636,
      "3f24": 8637,
      "3adf": 8638,
      "3ada": 8639,
      "3ad3": 8640,
      "3ad5": 8641,
      "3adb": 8642,
      "3ad8": 8643,
      "3ad6": 8644,
      "3adc": 8645,
      "3ad1": 8646,
      "3ad0": 8647,
      "3ad9": 8648,
      "3ade": 8649,
      "3ad7": 8650,
      "3ad4": 8651,
      "3ad2": 8652,
      "3a3f": 8653,
      "3a3a": 8654,
      "3a3d": 8655,
      "3a35": 8656,
      "3a3b": 8657,
      "3a38": 8658,
      "3a36": 8659,
      "3a3c": 8660,
      "3a31": 8661,
      "3a30": 8662,
      "3a39": 8663,
      "3a3e": 8664,
      "3a37": 8665,
      "3a34": 8666,
      "3a32": 8667,
      "3a5f": 8668,
      "3a5a": 8669,
      "3a5d": 8670,
      "3a53": 8671,
      "3a5b": 8672,
      "3a58": 8673,
      "3a56": 8674,
      "3a5c": 8675,
      "3a51": 8676,
      "3a50": 8677,
      "3a59": 8678,
      "3a5e": 8679,
      "3a57": 8680,
      "3a54": 8681,
      "3a52": 8682,
      "3abf": 8683,
      "3aba": 8684,
      "3abd": 8685,
      "3ab3": 8686,
      "3ab5": 8687,
      "3ab8": 8688,
      "3ab6": 8689,
      "3abc": 8690,
      "3ab1": 8691,
      "3ab0": 8692,
      "3ab9": 8693,
      "3abe": 8694,
      "3ab7": 8695,
      "3ab4": 8696,
      "3ab2": 8697,
      "3a8f": 8698,
      "3a8a": 8699,
      "3a8d": 8700,
      "3a83": 8701,
      "3a85": 8702,
      "3a8b": 8703,
      "3a86": 8704,
      "3a8c": 8705,
      "3a81": 8706,
      "3a80": 8707,
      "3a89": 8708,
      "3a8e": 8709,
      "3a87": 8710,
      "3a84": 8711,
      "3a82": 8712,
      "3a6f": 8713,
      "3a6a": 8714,
      "3a6d": 8715,
      "3a63": 8716,
      "3a65": 8717,
      "3a6b": 8718,
      "3a68": 8719,
      "3a6c": 8720,
      "3a61": 8721,
      "3a60": 8722,
      "3a69": 8723,
      "3a6e": 8724,
      "3a67": 8725,
      "3a64": 8726,
      "3a62": 8727,
      "3acf": 8728,
      "3aca": 8729,
      "3acd": 8730,
      "3ac3": 8731,
      "3ac5": 8732,
      "3acb": 8733,
      "3ac8": 8734,
      "3ac6": 8735,
      "3ac1": 8736,
      "3ac0": 8737,
      "3ac9": 8738,
      "3ace": 8739,
      "3ac7": 8740,
      "3ac4": 8741,
      "3ac2": 8742,
      "3a1f": 8743,
      "3a1a": 8744,
      "3a1d": 8745,
      "3a13": 8746,
      "3a15": 8747,
      "3a1b": 8748,
      "3a18": 8749,
      "3a16": 8750,
      "3a1c": 8751,
      "3a10": 8752,
      "3a19": 8753,
      "3a1e": 8754,
      "3a17": 8755,
      "3a14": 8756,
      "3a12": 8757,
      "3a0f": 8758,
      "3a0a": 8759,
      "3a0d": 8760,
      "3a03": 8761,
      "3a05": 8762,
      "3a0b": 8763,
      "3a08": 8764,
      "3a06": 8765,
      "3a0c": 8766,
      "3a01": 8767,
      "3a09": 8768,
      "3a0e": 8769,
      "3a07": 8770,
      "3a04": 8771,
      "3a02": 8772,
      "3a9f": 8773,
      "3a9a": 8774,
      "3a9d": 8775,
      "3a93": 8776,
      "3a95": 8777,
      "3a9b": 8778,
      "3a98": 8779,
      "3a96": 8780,
      "3a9c": 8781,
      "3a91": 8782,
      "3a90": 8783,
      "3a9e": 8784,
      "3a97": 8785,
      "3a94": 8786,
      "3a92": 8787,
      "3aef": 8788,
      "3aea": 8789,
      "3aed": 8790,
      "3ae3": 8791,
      "3ae5": 8792,
      "3aeb": 8793,
      "3ae8": 8794,
      "3ae6": 8795,
      "3aec": 8796,
      "3ae1": 8797,
      "3ae0": 8798,
      "3ae9": 8799,
      "3ae7": 8800,
      "3ae4": 8801,
      "3ae2": 8802,
      "3a7f": 8803,
      "3a7a": 8804,
      "3a7d": 8805,
      "3a73": 8806,
      "3a75": 8807,
      "3a7b": 8808,
      "3a78": 8809,
      "3a76": 8810,
      "3a7c": 8811,
      "3a71": 8812,
      "3a70": 8813,
      "3a79": 8814,
      "3a7e": 8815,
      "3a74": 8816,
      "3a72": 8817,
      "3a4f": 8818,
      "3a4a": 8819,
      "3a4d": 8820,
      "3a43": 8821,
      "3a45": 8822,
      "3a4b": 8823,
      "3a48": 8824,
      "3a46": 8825,
      "3a4c": 8826,
      "3a41": 8827,
      "3a40": 8828,
      "3a49": 8829,
      "3a4e": 8830,
      "3a47": 8831,
      "3a42": 8832,
      "3a2f": 8833,
      "3a2a": 8834,
      "3a2d": 8835,
      "3a23": 8836,
      "3a25": 8837,
      "3a2b": 8838,
      "3a28": 8839,
      "3a26": 8840,
      "3a2c": 8841,
      "3a21": 8842,
      "3a20": 8843,
      "3a29": 8844,
      "3a2e": 8845,
      "3a27": 8846,
      "3a24": 8847,
      "3d3f": 8848,
      "3d3a": 8849,
      "3d3d": 8850,
      "3d35": 8851,
      "3d3b": 8852,
      "3d38": 8853,
      "3d36": 8854,
      "3d3c": 8855,
      "3d31": 8856,
      "3d30": 8857,
      "3d39": 8858,
      "3d3e": 8859,
      "3d37": 8860,
      "3d34": 8861,
      "3d32": 8862,
      "3d5f": 8863,
      "3d5a": 8864,
      "3d5d": 8865,
      "3d53": 8866,
      "3d5b": 8867,
      "3d58": 8868,
      "3d56": 8869,
      "3d5c": 8870,
      "3d51": 8871,
      "3d50": 8872,
      "3d59": 8873,
      "3d5e": 8874,
      "3d57": 8875,
      "3d54": 8876,
      "3d52": 8877,
      "3dbf": 8878,
      "3dba": 8879,
      "3dbd": 8880,
      "3db3": 8881,
      "3db5": 8882,
      "3db8": 8883,
      "3db6": 8884,
      "3dbc": 8885,
      "3db1": 8886,
      "3db0": 8887,
      "3db9": 8888,
      "3dbe": 8889,
      "3db7": 8890,
      "3db4": 8891,
      "3db2": 8892,
      "3d8f": 8893,
      "3d8a": 8894,
      "3d8d": 8895,
      "3d83": 8896,
      "3d85": 8897,
      "3d8b": 8898,
      "3d86": 8899,
      "3d8c": 8900,
      "3d81": 8901,
      "3d80": 8902,
      "3d89": 8903,
      "3d8e": 8904,
      "3d87": 8905,
      "3d84": 8906,
      "3d82": 8907,
      "3d6f": 8908,
      "3d6a": 8909,
      "3d6d": 8910,
      "3d63": 8911,
      "3d65": 8912,
      "3d6b": 8913,
      "3d68": 8914,
      "3d6c": 8915,
      "3d61": 8916,
      "3d60": 8917,
      "3d69": 8918,
      "3d6e": 8919,
      "3d67": 8920,
      "3d64": 8921,
      "3d62": 8922,
      "3dcf": 8923,
      "3dca": 8924,
      "3dcd": 8925,
      "3dc3": 8926,
      "3dc5": 8927,
      "3dcb": 8928,
      "3dc8": 8929,
      "3dc6": 8930,
      "3dc1": 8931,
      "3dc0": 8932,
      "3dc9": 8933,
      "3dce": 8934,
      "3dc7": 8935,
      "3dc4": 8936,
      "3dc2": 8937,
      "3d1f": 8938,
      "3d1a": 8939,
      "3d1d": 8940,
      "3d13": 8941,
      "3d15": 8942,
      "3d1b": 8943,
      "3d18": 8944,
      "3d16": 8945,
      "3d1c": 8946,
      "3d10": 8947,
      "3d19": 8948,
      "3d1e": 8949,
      "3d17": 8950,
      "3d14": 8951,
      "3d12": 8952,
      "3d0f": 8953,
      "3d0a": 8954,
      "3d0d": 8955,
      "3d03": 8956,
      "3d05": 8957,
      "3d0b": 8958,
      "3d08": 8959,
      "3d06": 8960,
      "3d0c": 8961,
      "3d01": 8962,
      "3d09": 8963,
      "3d0e": 8964,
      "3d07": 8965,
      "3d04": 8966,
      "3d02": 8967,
      "3d9f": 8968,
      "3d9a": 8969,
      "3d9d": 8970,
      "3d93": 8971,
      "3d95": 8972,
      "3d9b": 8973,
      "3d98": 8974,
      "3d96": 8975,
      "3d9c": 8976,
      "3d91": 8977,
      "3d90": 8978,
      "3d9e": 8979,
      "3d97": 8980,
      "3d94": 8981,
      "3d92": 8982,
      "3def": 8983,
      "3dea": 8984,
      "3ded": 8985,
      "3de3": 8986,
      "3de5": 8987,
      "3deb": 8988,
      "3de8": 8989,
      "3de6": 8990,
      "3dec": 8991,
      "3de1": 8992,
      "3de0": 8993,
      "3de9": 8994,
      "3de7": 8995,
      "3de4": 8996,
      "3de2": 8997,
      "3d7f": 8998,
      "3d7a": 8999,
      "3d7d": 9000,
      "3d73": 9001,
      "3d75": 9002,
      "3d7b": 9003,
      "3d78": 9004,
      "3d76": 9005,
      "3d7c": 9006,
      "3d71": 9007,
      "3d70": 9008,
      "3d79": 9009,
      "3d7e": 9010,
      "3d74": 9011,
      "3d72": 9012,
      "3d4f": 9013,
      "3d4a": 9014,
      "3d4d": 9015,
      "3d43": 9016,
      "3d45": 9017,
      "3d4b": 9018,
      "3d48": 9019,
      "3d46": 9020,
      "3d4c": 9021,
      "3d41": 9022,
      "3d40": 9023,
      "3d49": 9024,
      "3d4e": 9025,
      "3d47": 9026,
      "3d42": 9027,
      "3d2f": 9028,
      "3d2a": 9029,
      "3d2d": 9030,
      "3d23": 9031,
      "3d25": 9032,
      "3d2b": 9033,
      "3d28": 9034,
      "3d26": 9035,
      "3d2c": 9036,
      "3d21": 9037,
      "3d20": 9038,
      "3d29": 9039,
      "3d2e": 9040,
      "3d27": 9041,
      "3d24": 9042,
      "335f": 9043,
      "335a": 9044,
      "335d": 9045,
      "3353": 9046,
      "335b": 9047,
      "3358": 9048,
      "3356": 9049,
      "335c": 9050,
      "3351": 9051,
      "3350": 9052,
      "3359": 9053,
      "335e": 9054,
      "3357": 9055,
      "3354": 9056,
      "3352": 9057,
      "33bf": 9058,
      "33ba": 9059,
      "33bd": 9060,
      "33b3": 9061,
      "33b5": 9062,
      "33b8": 9063,
      "33b6": 9064,
      "33bc": 9065,
      "33b1": 9066,
      "33b0": 9067,
      "33b9": 9068,
      "33be": 9069,
      "33b7": 9070,
      "33b4": 9071,
      "33b2": 9072,
      "338f": 9073,
      "338a": 9074,
      "338d": 9075,
      "3383": 9076,
      "3385": 9077,
      "338b": 9078,
      "3386": 9079,
      "338c": 9080,
      "3381": 9081,
      "3380": 9082,
      "3389": 9083,
      "338e": 9084,
      "3387": 9085,
      "3384": 9086,
      "3382": 9087,
      "336f": 9088,
      "336a": 9089,
      "336d": 9090,
      "3363": 9091,
      "3365": 9092,
      "336b": 9093,
      "3368": 9094,
      "336c": 9095,
      "3361": 9096,
      "3360": 9097,
      "3369": 9098,
      "336e": 9099,
      "3367": 9100,
      "3364": 9101,
      "3362": 9102,
      "33cf": 9103,
      "33ca": 9104,
      "33cd": 9105,
      "33c3": 9106,
      "33c5": 9107,
      "33cb": 9108,
      "33c8": 9109,
      "33c6": 9110,
      "33c1": 9111,
      "33c0": 9112,
      "33c9": 9113,
      "33ce": 9114,
      "33c7": 9115,
      "33c4": 9116,
      "33c2": 9117,
      "331f": 9118,
      "331a": 9119,
      "331d": 9120,
      "3313": 9121,
      "3315": 9122,
      "331b": 9123,
      "3318": 9124,
      "3316": 9125,
      "331c": 9126,
      "3310": 9127,
      "3319": 9128,
      "331e": 9129,
      "3317": 9130,
      "3314": 9131,
      "3312": 9132,
      "330f": 9133,
      "330a": 9134,
      "330d": 9135,
      "3303": 9136,
      "3305": 9137,
      "330b": 9138,
      "3308": 9139,
      "3306": 9140,
      "330c": 9141,
      "3301": 9142,
      "3309": 9143,
      "330e": 9144,
      "3307": 9145,
      "3304": 9146,
      "3302": 9147,
      "339f": 9148,
      "339a": 9149,
      "339d": 9150,
      "3393": 9151,
      "3395": 9152,
      "339b": 9153,
      "3398": 9154,
      "3396": 9155,
      "339c": 9156,
      "3391": 9157,
      "3390": 9158,
      "339e": 9159,
      "3397": 9160,
      "3394": 9161,
      "3392": 9162,
      "33ef": 9163,
      "33ea": 9164,
      "33ed": 9165,
      "33e3": 9166,
      "33e5": 9167,
      "33eb": 9168,
      "33e8": 9169,
      "33e6": 9170,
      "33ec": 9171,
      "33e1": 9172,
      "33e0": 9173,
      "33e9": 9174,
      "33e7": 9175,
      "33e4": 9176,
      "33e2": 9177,
      "337f": 9178,
      "337a": 9179,
      "337d": 9180,
      "3373": 9181,
      "3375": 9182,
      "337b": 9183,
      "3378": 9184,
      "3376": 9185,
      "337c": 9186,
      "3371": 9187,
      "3370": 9188,
      "3379": 9189,
      "337e": 9190,
      "3374": 9191,
      "3372": 9192,
      "334f": 9193,
      "334a": 9194,
      "334d": 9195,
      "3343": 9196,
      "3345": 9197,
      "334b": 9198,
      "3348": 9199,
      "3346": 9200,
      "334c": 9201,
      "3341": 9202,
      "3340": 9203,
      "3349": 9204,
      "334e": 9205,
      "3347": 9206,
      "3342": 9207,
      "332f": 9208,
      "332a": 9209,
      "332d": 9210,
      "3323": 9211,
      "3325": 9212,
      "332b": 9213,
      "3328": 9214,
      "3326": 9215,
      "332c": 9216,
      "3321": 9217,
      "3320": 9218,
      "3329": 9219,
      "332e": 9220,
      "3327": 9221,
      "3324": 9222,
      "35bf": 9223,
      "35ba": 9224,
      "35bd": 9225,
      "35b3": 9226,
      "35b5": 9227,
      "35b8": 9228,
      "35b6": 9229,
      "35bc": 9230,
      "35b1": 9231,
      "35b0": 9232,
      "35b9": 9233,
      "35be": 9234,
      "35b7": 9235,
      "35b4": 9236,
      "35b2": 9237,
      "358f": 9238,
      "358a": 9239,
      "358d": 9240,
      "3583": 9241,
      "3585": 9242,
      "358b": 9243,
      "3586": 9244,
      "358c": 9245,
      "3581": 9246,
      "3580": 9247,
      "3589": 9248,
      "358e": 9249,
      "3587": 9250,
      "3584": 9251,
      "3582": 9252,
      "356f": 9253,
      "356a": 9254,
      "356d": 9255,
      "3563": 9256,
      "3565": 9257,
      "356b": 9258,
      "3568": 9259,
      "356c": 9260,
      "3561": 9261,
      "3560": 9262,
      "3569": 9263,
      "356e": 9264,
      "3567": 9265,
      "3564": 9266,
      "3562": 9267,
      "35cf": 9268,
      "35ca": 9269,
      "35cd": 9270,
      "35c3": 9271,
      "35c5": 9272,
      "35cb": 9273,
      "35c8": 9274,
      "35c6": 9275,
      "35c1": 9276,
      "35c0": 9277,
      "35c9": 9278,
      "35ce": 9279,
      "35c7": 9280,
      "35c4": 9281,
      "35c2": 9282,
      "351f": 9283,
      "351a": 9284,
      "351d": 9285,
      "3513": 9286,
      "3515": 9287,
      "351b": 9288,
      "3518": 9289,
      "3516": 9290,
      "351c": 9291,
      "3510": 9292,
      "3519": 9293,
      "351e": 9294,
      "3517": 9295,
      "3514": 9296,
      "3512": 9297,
      "350f": 9298,
      "350a": 9299,
      "350d": 9300,
      "3503": 9301,
      "3505": 9302,
      "350b": 9303,
      "3508": 9304,
      "3506": 9305,
      "350c": 9306,
      "3501": 9307,
      "3509": 9308,
      "350e": 9309,
      "3507": 9310,
      "3504": 9311,
      "3502": 9312,
      "359f": 9313,
      "359a": 9314,
      "359d": 9315,
      "3593": 9316,
      "3595": 9317,
      "359b": 9318,
      "3598": 9319,
      "3596": 9320,
      "359c": 9321,
      "3591": 9322,
      "3590": 9323,
      "359e": 9324,
      "3597": 9325,
      "3594": 9326,
      "3592": 9327,
      "35ef": 9328,
      "35ea": 9329,
      "35ed": 9330,
      "35e3": 9331,
      "35e5": 9332,
      "35eb": 9333,
      "35e8": 9334,
      "35e6": 9335,
      "35ec": 9336,
      "35e1": 9337,
      "35e0": 9338,
      "35e9": 9339,
      "35e7": 9340,
      "35e4": 9341,
      "35e2": 9342,
      "357f": 9343,
      "357a": 9344,
      "357d": 9345,
      "3573": 9346,
      "3575": 9347,
      "357b": 9348,
      "3578": 9349,
      "3576": 9350,
      "357c": 9351,
      "3571": 9352,
      "3570": 9353,
      "3579": 9354,
      "357e": 9355,
      "3574": 9356,
      "3572": 9357,
      "354f": 9358,
      "354a": 9359,
      "354d": 9360,
      "3543": 9361,
      "3545": 9362,
      "354b": 9363,
      "3548": 9364,
      "3546": 9365,
      "354c": 9366,
      "3541": 9367,
      "3540": 9368,
      "3549": 9369,
      "354e": 9370,
      "3547": 9371,
      "3542": 9372,
      "352f": 9373,
      "352a": 9374,
      "352d": 9375,
      "3523": 9376,
      "3525": 9377,
      "352b": 9378,
      "3528": 9379,
      "3526": 9380,
      "352c": 9381,
      "3521": 9382,
      "3520": 9383,
      "3529": 9384,
      "352e": 9385,
      "3527": 9386,
      "3524": 9387,
      "3b8f": 9388,
      "3b8a": 9389,
      "3b8d": 9390,
      "3b83": 9391,
      "3b85": 9392,
      "3b8b": 9393,
      "3b86": 9394,
      "3b8c": 9395,
      "3b81": 9396,
      "3b80": 9397,
      "3b89": 9398,
      "3b8e": 9399,
      "3b87": 9400,
      "3b84": 9401,
      "3b82": 9402,
      "3b6f": 9403,
      "3b6a": 9404,
      "3b6d": 9405,
      "3b63": 9406,
      "3b65": 9407,
      "3b6b": 9408,
      "3b68": 9409,
      "3b6c": 9410,
      "3b61": 9411,
      "3b60": 9412,
      "3b69": 9413,
      "3b6e": 9414,
      "3b67": 9415,
      "3b64": 9416,
      "3b62": 9417,
      "3bcf": 9418,
      "3bca": 9419,
      "3bcd": 9420,
      "3bc3": 9421,
      "3bc5": 9422,
      "3bcb": 9423,
      "3bc8": 9424,
      "3bc6": 9425,
      "3bc1": 9426,
      "3bc0": 9427,
      "3bc9": 9428,
      "3bce": 9429,
      "3bc7": 9430,
      "3bc4": 9431,
      "3bc2": 9432,
      "3b1f": 9433,
      "3b1a": 9434,
      "3b1d": 9435,
      "3b13": 9436,
      "3b15": 9437,
      "3b1b": 9438,
      "3b18": 9439,
      "3b16": 9440,
      "3b1c": 9441,
      "3b10": 9442,
      "3b19": 9443,
      "3b1e": 9444,
      "3b17": 9445,
      "3b14": 9446,
      "3b12": 9447,
      "3b0f": 9448,
      "3b0a": 9449,
      "3b0d": 9450,
      "3b03": 9451,
      "3b05": 9452,
      "3b0b": 9453,
      "3b08": 9454,
      "3b06": 9455,
      "3b0c": 9456,
      "3b01": 9457,
      "3b09": 9458,
      "3b0e": 9459,
      "3b07": 9460,
      "3b04": 9461,
      "3b02": 9462,
      "3b9f": 9463,
      "3b9a": 9464,
      "3b9d": 9465,
      "3b93": 9466,
      "3b95": 9467,
      "3b9b": 9468,
      "3b98": 9469,
      "3b96": 9470,
      "3b9c": 9471,
      "3b91": 9472,
      "3b90": 9473,
      "3b9e": 9474,
      "3b97": 9475,
      "3b94": 9476,
      "3b92": 9477,
      "3bef": 9478,
      "3bea": 9479,
      "3bed": 9480,
      "3be3": 9481,
      "3be5": 9482,
      "3beb": 9483,
      "3be8": 9484,
      "3be6": 9485,
      "3bec": 9486,
      "3be1": 9487,
      "3be0": 9488,
      "3be9": 9489,
      "3be7": 9490,
      "3be4": 9491,
      "3be2": 9492,
      "3b7f": 9493,
      "3b7a": 9494,
      "3b7d": 9495,
      "3b73": 9496,
      "3b75": 9497,
      "3b7b": 9498,
      "3b78": 9499,
      "3b76": 9500,
      "3b7c": 9501,
      "3b71": 9502,
      "3b70": 9503,
      "3b79": 9504,
      "3b7e": 9505,
      "3b74": 9506,
      "3b72": 9507,
      "3b4f": 9508,
      "3b4a": 9509,
      "3b4d": 9510,
      "3b43": 9511,
      "3b45": 9512,
      "3b4b": 9513,
      "3b48": 9514,
      "3b46": 9515,
      "3b4c": 9516,
      "3b41": 9517,
      "3b40": 9518,
      "3b49": 9519,
      "3b4e": 9520,
      "3b47": 9521,
      "3b42": 9522,
      "3b2f": 9523,
      "3b2a": 9524,
      "3b2d": 9525,
      "3b23": 9526,
      "3b25": 9527,
      "3b2b": 9528,
      "3b28": 9529,
      "3b26": 9530,
      "3b2c": 9531,
      "3b21": 9532,
      "3b20": 9533,
      "3b29": 9534,
      "3b2e": 9535,
      "3b27": 9536,
      "3b24": 9537,
      "386f": 9538,
      "386a": 9539,
      "386d": 9540,
      "3863": 9541,
      "3865": 9542,
      "386b": 9543,
      "3868": 9544,
      "386c": 9545,
      "3861": 9546,
      "3860": 9547,
      "3869": 9548,
      "386e": 9549,
      "3867": 9550,
      "3864": 9551,
      "3862": 9552,
      "38cf": 9553,
      "38ca": 9554,
      "38cd": 9555,
      "38c3": 9556,
      "38c5": 9557,
      "38cb": 9558,
      "38c8": 9559,
      "38c6": 9560,
      "38c1": 9561,
      "38c0": 9562,
      "38c9": 9563,
      "38ce": 9564,
      "38c7": 9565,
      "38c4": 9566,
      "38c2": 9567,
      "381f": 9568,
      "381a": 9569,
      "381d": 9570,
      "3813": 9571,
      "3815": 9572,
      "381b": 9573,
      "3818": 9574,
      "3816": 9575,
      "381c": 9576,
      "3810": 9577,
      "3819": 9578,
      "381e": 9579,
      "3817": 9580,
      "3814": 9581,
      "3812": 9582,
      "380f": 9583,
      "380a": 9584,
      "380d": 9585,
      "3803": 9586,
      "3805": 9587,
      "380b": 9588,
      "3808": 9589,
      "3806": 9590,
      "380c": 9591,
      "3801": 9592,
      "3809": 9593,
      "380e": 9594,
      "3807": 9595,
      "3804": 9596,
      "3802": 9597,
      "389f": 9598,
      "389a": 9599,
      "389d": 9600,
      "3893": 9601,
      "3895": 9602,
      "389b": 9603,
      "3898": 9604,
      "3896": 9605,
      "389c": 9606,
      "3891": 9607,
      "3890": 9608,
      "389e": 9609,
      "3897": 9610,
      "3894": 9611,
      "3892": 9612,
      "38ef": 9613,
      "38ea": 9614,
      "38ed": 9615,
      "38e3": 9616,
      "38e5": 9617,
      "38eb": 9618,
      "38e8": 9619,
      "38e6": 9620,
      "38ec": 9621,
      "38e1": 9622,
      "38e0": 9623,
      "38e9": 9624,
      "38e7": 9625,
      "38e4": 9626,
      "38e2": 9627,
      "387f": 9628,
      "387a": 9629,
      "387d": 9630,
      "3873": 9631,
      "3875": 9632,
      "387b": 9633,
      "3878": 9634,
      "3876": 9635,
      "387c": 9636,
      "3871": 9637,
      "3870": 9638,
      "3879": 9639,
      "387e": 9640,
      "3874": 9641,
      "3872": 9642,
      "384f": 9643,
      "384a": 9644,
      "384d": 9645,
      "3843": 9646,
      "3845": 9647,
      "384b": 9648,
      "3848": 9649,
      "3846": 9650,
      "384c": 9651,
      "3841": 9652,
      "3840": 9653,
      "3849": 9654,
      "384e": 9655,
      "3847": 9656,
      "3842": 9657,
      "382f": 9658,
      "382a": 9659,
      "382d": 9660,
      "3823": 9661,
      "3825": 9662,
      "382b": 9663,
      "3828": 9664,
      "3826": 9665,
      "382c": 9666,
      "3821": 9667,
      "3820": 9668,
      "3829": 9669,
      "382e": 9670,
      "3827": 9671,
      "3824": 9672,
      "36cf": 9673,
      "36ca": 9674,
      "36cd": 9675,
      "36c3": 9676,
      "36c5": 9677,
      "36cb": 9678,
      "36c8": 9679,
      "36c6": 9680,
      "36c1": 9681,
      "36c0": 9682,
      "36c9": 9683,
      "36ce": 9684,
      "36c7": 9685,
      "36c4": 9686,
      "36c2": 9687,
      "361f": 9688,
      "361a": 9689,
      "361d": 9690,
      "3613": 9691,
      "3615": 9692,
      "361b": 9693,
      "3618": 9694,
      "3616": 9695,
      "361c": 9696,
      "3610": 9697,
      "3619": 9698,
      "361e": 9699,
      "3617": 9700,
      "3614": 9701,
      "3612": 9702,
      "360f": 9703,
      "360a": 9704,
      "360d": 9705,
      "3603": 9706,
      "3605": 9707,
      "360b": 9708,
      "3608": 9709,
      "3606": 9710,
      "360c": 9711,
      "3601": 9712,
      "3609": 9713,
      "360e": 9714,
      "3607": 9715,
      "3604": 9716,
      "3602": 9717,
      "369f": 9718,
      "369a": 9719,
      "369d": 9720,
      "3693": 9721,
      "3695": 9722,
      "369b": 9723,
      "3698": 9724,
      "3696": 9725,
      "369c": 9726,
      "3691": 9727,
      "3690": 9728,
      "369e": 9729,
      "3697": 9730,
      "3694": 9731,
      "3692": 9732,
      "36ef": 9733,
      "36ea": 9734,
      "36ed": 9735,
      "36e3": 9736,
      "36e5": 9737,
      "36eb": 9738,
      "36e8": 9739,
      "36e6": 9740,
      "36ec": 9741,
      "36e1": 9742,
      "36e0": 9743,
      "36e9": 9744,
      "36e7": 9745,
      "36e4": 9746,
      "36e2": 9747,
      "367f": 9748,
      "367a": 9749,
      "367d": 9750,
      "3673": 9751,
      "3675": 9752,
      "367b": 9753,
      "3678": 9754,
      "3676": 9755,
      "367c": 9756,
      "3671": 9757,
      "3670": 9758,
      "3679": 9759,
      "367e": 9760,
      "3674": 9761,
      "3672": 9762,
      "364f": 9763,
      "364a": 9764,
      "364d": 9765,
      "3643": 9766,
      "3645": 9767,
      "364b": 9768,
      "3648": 9769,
      "3646": 9770,
      "364c": 9771,
      "3641": 9772,
      "3640": 9773,
      "3649": 9774,
      "364e": 9775,
      "3647": 9776,
      "3642": 9777,
      "362f": 9778,
      "362a": 9779,
      "362d": 9780,
      "3623": 9781,
      "3625": 9782,
      "362b": 9783,
      "3628": 9784,
      "3626": 9785,
      "362c": 9786,
      "3621": 9787,
      "3620": 9788,
      "3629": 9789,
      "362e": 9790,
      "3627": 9791,
      "3624": 9792,
      "3c1f": 9793,
      "3c1a": 9794,
      "3c1d": 9795,
      "3c13": 9796,
      "3c15": 9797,
      "3c1b": 9798,
      "3c18": 9799,
      "3c16": 9800,
      "3c1c": 9801,
      "3c10": 9802,
      "3c19": 9803,
      "3c1e": 9804,
      "3c17": 9805,
      "3c14": 9806,
      "3c12": 9807,
      "3c0f": 9808,
      "3c0a": 9809,
      "3c0d": 9810,
      "3c03": 9811,
      "3c05": 9812,
      "3c0b": 9813,
      "3c08": 9814,
      "3c06": 9815,
      "3c0c": 9816,
      "3c01": 9817,
      "3c09": 9818,
      "3c0e": 9819,
      "3c07": 9820,
      "3c04": 9821,
      "3c02": 9822,
      "3c9f": 9823,
      "3c9a": 9824,
      "3c9d": 9825,
      "3c93": 9826,
      "3c95": 9827,
      "3c9b": 9828,
      "3c98": 9829,
      "3c96": 9830,
      "3c9c": 9831,
      "3c91": 9832,
      "3c90": 9833,
      "3c9e": 9834,
      "3c97": 9835,
      "3c94": 9836,
      "3c92": 9837,
      "3cef": 9838,
      "3cea": 9839,
      "3ced": 9840,
      "3ce3": 9841,
      "3ce5": 9842,
      "3ceb": 9843,
      "3ce8": 9844,
      "3ce6": 9845,
      "3cec": 9846,
      "3ce1": 9847,
      "3ce0": 9848,
      "3ce9": 9849,
      "3ce7": 9850,
      "3ce4": 9851,
      "3ce2": 9852,
      "3c7f": 9853,
      "3c7a": 9854,
      "3c7d": 9855,
      "3c73": 9856,
      "3c75": 9857,
      "3c7b": 9858,
      "3c78": 9859,
      "3c76": 9860,
      "3c7c": 9861,
      "3c71": 9862,
      "3c70": 9863,
      "3c79": 9864,
      "3c7e": 9865,
      "3c74": 9866,
      "3c72": 9867,
      "3c4f": 9868,
      "3c4a": 9869,
      "3c4d": 9870,
      "3c43": 9871,
      "3c45": 9872,
      "3c4b": 9873,
      "3c48": 9874,
      "3c46": 9875,
      "3c4c": 9876,
      "3c41": 9877,
      "3c40": 9878,
      "3c49": 9879,
      "3c4e": 9880,
      "3c47": 9881,
      "3c42": 9882,
      "3c2f": 9883,
      "3c2a": 9884,
      "3c2d": 9885,
      "3c23": 9886,
      "3c25": 9887,
      "3c2b": 9888,
      "3c28": 9889,
[...]
